// model.h — generato da MFCC_Arduino_Training.ipynb
// Copiare nella stessa cartella dello sketch Arduino.
#pragma once
#include <stdint.h>

// ── Parametri MFCC (identici all'Arduino sketch) ──────────────────────────────
#define SAMPLE_RATE        16000
#define FRAME_LEN          256
#define HOP_LEN            128
#define N_MEL              26
#define N_MFCC             13
#define MEL_LOW_HZ         300.0f
#define MEL_HIGH_HZ        8000.0f
#define PRE_EMPHASIS       0.97f
#define CLIP_SAMPLES       16000

// ── Normalizzazione per-coefficiente (array di N_MFCC=13 valori) ──────────────
// Usare: norm = (mfcc[c][t] - NORM_MEAN[c]) / NORM_STD[c]
static const float NORM_MEAN[N_MFCC] = { -308.45465088f, -21.36962700f, -4.67381477f, -2.87489104f, -0.44097009f, -0.93039739f, -1.00346208f, -0.15061364f, -0.11517536f, -0.02718289f, -0.31541961f, -0.31405061f, 0.00903313f };
static const float NORM_STD [N_MFCC] = { 160.96282959f, 17.22010612f, 6.79569340f, 4.97240448f, 3.27630305f, 3.25386190f, 3.09491754f, 2.88604021f, 2.69962811f, 2.59113121f, 2.53406763f, 2.28689098f, 2.18118167f  };

// ── Quantizzazione TFLite INT8 ────────────────────────────────────────────────
#define INPUT_SCALE        0.05052489f
#define INPUT_ZERO_POINT   -5
#define OUTPUT_SCALE       0.00390625f
#define OUTPUT_ZERO_POINT  -128

// ── Etichette classi ──────────────────────────────────────────────────────────
#define N_CLASSES          4
static const char* const CLASS_LABELS[] = { "clap", "tap", "snap", "silence" };

// ── Modello TFLite (xxd) ──────────────────────────────────────────────────────
const unsigned char model[] = {
  0x1c, 0x00, 0x00, 0x00, 0x54, 0x46, 0x4c, 0x33, 0x14, 0x00, 0x20, 0x00,
  0x1c, 0x00, 0x18, 0x00, 0x14, 0x00, 0x10, 0x00, 0x0c, 0x00, 0x00, 0x00,
  0x08, 0x00, 0x04, 0x00, 0x14, 0x00, 0x00, 0x00, 0x1c, 0x00, 0x00, 0x00,
  0x98, 0x00, 0x00, 0x00, 0x18, 0x01, 0x00, 0x00, 0x10, 0x20, 0x00, 0x00,
  0x20, 0x20, 0x00, 0x00, 0xe0, 0x38, 0x00, 0x00, 0x03, 0x00, 0x00, 0x00,
  0x01, 0x00, 0x00, 0x00, 0x10, 0x00, 0x00, 0x00, 0x00, 0x00, 0x0a, 0x00,
  0x10, 0x00, 0x0c, 0x00, 0x08, 0x00, 0x04, 0x00, 0x0a, 0x00, 0x00, 0x00,
  0x0c, 0x00, 0x00, 0x00, 0x1c, 0x00, 0x00, 0x00, 0x3c, 0x00, 0x00, 0x00,
  0x0f, 0x00, 0x00, 0x00, 0x73, 0x65, 0x72, 0x76, 0x69, 0x6e, 0x67, 0x5f,
  0x64, 0x65, 0x66, 0x61, 0x75, 0x6c, 0x74, 0x00, 0x01, 0x00, 0x00, 0x00,
  0x04, 0x00, 0x00, 0x00, 0x68, 0xff, 0xff, 0xff, 0x11, 0x00, 0x00, 0x00,
  0x04, 0x00, 0x00, 0x00, 0x08, 0x00, 0x00, 0x00, 0x6f, 0x75, 0x74, 0x70,
  0x75, 0x74, 0x5f, 0x30, 0x00, 0x00, 0x00, 0x00, 0x01, 0x00, 0x00, 0x00,
  0x04, 0x00, 0x00, 0x00, 0xd6, 0xdf, 0xff, 0xff, 0x04, 0x00, 0x00, 0x00,
  0x0c, 0x00, 0x00, 0x00, 0x6b, 0x65, 0x72, 0x61, 0x73, 0x5f, 0x74, 0x65,
  0x6e, 0x73, 0x6f, 0x72, 0x00, 0x00, 0x00, 0x00, 0x03, 0x00, 0x00, 0x00,
  0x5c, 0x00, 0x00, 0x00, 0x2c, 0x00, 0x00, 0x00, 0x04, 0x00, 0x00, 0x00,
  0xb8, 0xff, 0xff, 0xff, 0x15, 0x00, 0x00, 0x00, 0x04, 0x00, 0x00, 0x00,
  0x13, 0x00, 0x00, 0x00, 0x43, 0x4f, 0x4e, 0x56, 0x45, 0x52, 0x53, 0x49,
  0x4f, 0x4e, 0x5f, 0x4d, 0x45, 0x54, 0x41, 0x44, 0x41, 0x54, 0x41, 0x00,
  0xdc, 0xff, 0xff, 0xff, 0x14, 0x00, 0x00, 0x00, 0x04, 0x00, 0x00, 0x00,
  0x13, 0x00, 0x00, 0x00, 0x6d, 0x69, 0x6e, 0x5f, 0x72, 0x75, 0x6e, 0x74,
  0x69, 0x6d, 0x65, 0x5f, 0x76, 0x65, 0x72, 0x73, 0x69, 0x6f, 0x6e, 0x00,
  0x08, 0x00, 0x0c, 0x00, 0x08, 0x00, 0x04, 0x00, 0x08, 0x00, 0x00, 0x00,
  0x13, 0x00, 0x00, 0x00, 0x04, 0x00, 0x00, 0x00, 0x13, 0x00, 0x00, 0x00,
  0x6d, 0x69, 0x6e, 0x5f, 0x72, 0x75, 0x6e, 0x74, 0x69, 0x6d, 0x65, 0x5f,
  0x76, 0x65, 0x72, 0x73, 0x69, 0x6f, 0x6e, 0x00, 0x16, 0x00, 0x00, 0x00,
  0xf4, 0x1e, 0x00, 0x00, 0xec, 0x1e, 0x00, 0x00, 0xd4, 0x1e, 0x00, 0x00,
  0xb4, 0x1e, 0x00, 0x00, 0xa4, 0x1d, 0x00, 0x00, 0x94, 0x1c, 0x00, 0x00,
  0x84, 0x14, 0x00, 0x00, 0xf4, 0x13, 0x00, 0x00, 0xe4, 0x01, 0x00, 0x00,
  0x94, 0x01, 0x00, 0x00, 0xf4, 0x00, 0x00, 0x00, 0xec, 0x00, 0x00, 0x00,
  0xe4, 0x00, 0x00, 0x00, 0xdc, 0x00, 0x00, 0x00, 0xd4, 0x00, 0x00, 0x00,
  0xcc, 0x00, 0x00, 0x00, 0xc4, 0x00, 0x00, 0x00, 0xbc, 0x00, 0x00, 0x00,
  0xb4, 0x00, 0x00, 0x00, 0x94, 0x00, 0x00, 0x00, 0x74, 0x00, 0x00, 0x00,
  0x04, 0x00, 0x00, 0x00, 0xd2, 0xe0, 0xff, 0xff, 0x04, 0x00, 0x00, 0x00,
  0x60, 0x00, 0x00, 0x00, 0x0c, 0x00, 0x00, 0x00, 0x08, 0x00, 0x0e, 0x00,
  0x08, 0x00, 0x04, 0x00, 0x08, 0x00, 0x00, 0x00, 0x10, 0x00, 0x00, 0x00,
  0x28, 0x00, 0x00, 0x00, 0x00, 0x00, 0x06, 0x00, 0x08, 0x00, 0x04, 0x00,
  0x06, 0x00, 0x00, 0x00, 0x04, 0x00, 0x00, 0x00, 0x01, 0x00, 0x00, 0x00,
  0xeb, 0x03, 0x00, 0x00, 0x0c, 0x00, 0x18, 0x00, 0x14, 0x00, 0x10, 0x00,
  0x0c, 0x00, 0x04, 0x00, 0x0c, 0x00, 0x00, 0x00, 0x68, 0x04, 0x7c, 0x7f,
  0x70, 0xb0, 0x99, 0x44, 0x02, 0x00, 0x00, 0x00, 0x02, 0x00, 0x00, 0x00,
  0x04, 0x00, 0x00, 0x00, 0x06, 0x00, 0x00, 0x00, 0x32, 0x2e, 0x31, 0x39,
  0x2e, 0x30, 0x00, 0x00, 0x3e, 0xe1, 0xff, 0xff, 0x04, 0x00, 0x00, 0x00,
  0x10, 0x00, 0x00, 0x00, 0x00, 0x00, 0x00, 0x00, 0x00, 0x00, 0x00, 0x00,
  0x00, 0x00, 0x00, 0x00, 0x00, 0x00, 0x00, 0x00, 0x5a, 0xe1, 0xff, 0xff,
  0x04, 0x00, 0x00, 0x00, 0x10, 0x00, 0x00, 0x00, 0x31, 0x2e, 0x31, 0x34,
  0x2e, 0x30, 0x00, 0x00, 0x00, 0x00, 0x00, 0x00, 0x00, 0x00, 0x00, 0x00,
  0x04, 0xca, 0xff, 0xff, 0x08, 0xca, 0xff, 0xff, 0x0c, 0xca, 0xff, 0xff,
  0x10, 0xca, 0xff, 0xff, 0x14, 0xca, 0xff, 0xff, 0x18, 0xca, 0xff, 0xff,
  0x1c, 0xca, 0xff, 0xff, 0x20, 0xca, 0xff, 0xff, 0x96, 0xe1, 0xff, 0xff,
  0x04, 0x00, 0x00, 0x00, 0x90, 0x00, 0x00, 0x00, 0x14, 0xfc, 0x35, 0x13,
  0xfe, 0x00, 0x59, 0xc1, 0x7f, 0x2d, 0xf8, 0xb0, 0xd1, 0xc2, 0xe0, 0xa6,
  0x84, 0x81, 0x87, 0x7f, 0x83, 0xb0, 0x47, 0xd7, 0xad, 0x35, 0xef, 0x67,
  0x94, 0xa7, 0x4f, 0x7f, 0x87, 0xba, 0x8f, 0xe2, 0x0e, 0x4c, 0x7f, 0x6e,
  0x14, 0x26, 0x81, 0x42, 0x05, 0xe5, 0xd3, 0x81, 0xd3, 0xd3, 0xdc, 0x2b,
  0x00, 0xe2, 0x6c, 0x62, 0x5a, 0xdc, 0x0b, 0xf0, 0x97, 0x81, 0x96, 0x4f,
  0xf8, 0x29, 0x4d, 0x7f, 0x56, 0x16, 0x2f, 0xc0, 0x07, 0x1c, 0x39, 0xce,
  0xd9, 0x81, 0x05, 0x18, 0x12, 0xc5, 0xd4, 0x07, 0x9c, 0x81, 0x86, 0x57,
  0x37, 0x24, 0xcc, 0xcf, 0xa9, 0x4b, 0x5e, 0x7f, 0x56, 0xde, 0x2b, 0xd0,
  0xd5, 0x26, 0x7f, 0x3a, 0xc6, 0x07, 0xd2, 0x05, 0x54, 0x7a, 0x7f, 0xff,
  0x13, 0x33, 0xf4, 0xab, 0x95, 0xe0, 0xf0, 0x14, 0xab, 0x8e, 0x81, 0xef,
  0xc8, 0xce, 0xe0, 0xc4, 0xdd, 0xeb, 0xd4, 0xb7, 0xaa, 0x81, 0xad, 0x97,
  0x87, 0xa7, 0xfa, 0x0e, 0x25, 0x33, 0x7f, 0x7b, 0x32, 0xe2, 0xff, 0xff,
  0x04, 0x00, 0x00, 0x00, 0x40, 0x00, 0x00, 0x00, 0xd6, 0xff, 0xff, 0xff,
  0x9d, 0xf9, 0xff, 0xff, 0xab, 0xff, 0xff, 0xff, 0x38, 0xff, 0xff, 0xff,
  0xbe, 0x01, 0x00, 0x00, 0x53, 0xfb, 0xff, 0xff, 0xef, 0xfb, 0xff, 0xff,
  0x9a, 0x00, 0x00, 0x00, 0x1c, 0xfe, 0xff, 0xff, 0x51, 0xf9, 0xff, 0xff,
  0xd5, 0xfa, 0xff, 0xff, 0xc2, 0xfe, 0xff, 0xff, 0x72, 0xfc, 0xff, 0xff,
  0x98, 0xf7, 0xff, 0xff, 0x6f, 0xf9, 0xff, 0xff, 0xc4, 0xfc, 0xff, 0xff,
  0x7e, 0xe2, 0xff, 0xff, 0x04, 0x00, 0x00, 0x00, 0x00, 0x12, 0x00, 0x00,
  0xb4, 0xf3, 0x17, 0x44, 0xdd, 0x3a, 0xf0, 0x16, 0xac, 0xbe, 0x38, 0xef,
  0x0d, 0x9f, 0xd1, 0x25, 0x33, 0xca, 0x0c, 0x05, 0x10, 0x19, 0x0a, 0x11,
  0xf4, 0x26, 0x1b, 0x12, 0xf4, 0x09, 0xce, 0x7f, 0xe1, 0xd0, 0x61, 0x27,
  0x1b, 0x3b, 0x25, 0x32, 0xea, 0x1b, 0x10, 0x1b, 0x01, 0xc0, 0xe9, 0x36,
  0x0c, 0xc1, 0xdf, 0xb6, 0x07, 0xfc, 0xf6, 0xe8, 0x20, 0x09, 0xfc, 0x07,
  0xf8, 0xd0, 0xbb, 0x2d, 0x09, 0x12, 0x30, 0xe2, 0x1c, 0xff, 0x13, 0xfb,
  0xec, 0x03, 0xdc, 0x04, 0x14, 0x1a, 0xf4, 0xe9, 0xf2, 0xf5, 0x11, 0xea,
  0xc2, 0xd6, 0xee, 0xce, 0xed, 0x12, 0xf2, 0x0b, 0x07, 0xfe, 0x9c, 0xf5,
  0x35, 0xde, 0x39, 0x2c, 0x3d, 0xe7, 0x14, 0x14, 0xf9, 0xed, 0x24, 0xf2,
  0x0a, 0xe4, 0xe9, 0x3e, 0x2d, 0xd3, 0x36, 0x0c, 0x3e, 0xd4, 0x0b, 0x06,
  0x13, 0x1a, 0x5a, 0x03, 0xf9, 0xcf, 0xd6, 0x62, 0x12, 0xd6, 0x38, 0x13,
  0xff, 0xc1, 0xf4, 0x45, 0xf7, 0xdc, 0x46, 0x1f, 0x20, 0xff, 0xc4, 0x32,
  0xe6, 0x02, 0x0f, 0xf9, 0x19, 0x13, 0x5c, 0x11, 0x1a, 0xe8, 0x39, 0x08,
  0x17, 0x0c, 0xfd, 0x07, 0xe3, 0x45, 0xee, 0xf0, 0x17, 0x09, 0x5c, 0x1f,
  0x05, 0x0b, 0x2a, 0x32, 0x36, 0x1c, 0x32, 0xfe, 0xfe, 0x3f, 0xda, 0x0a,
  0xfd, 0xef, 0x7f, 0x1f, 0x22, 0xf9, 0x36, 0x35, 0x21, 0x17, 0x27, 0x29,
  0xee, 0x09, 0x16, 0x08, 0xe9, 0x10, 0x12, 0xef, 0xf1, 0x32, 0x0c, 0x1c,
  0xfa, 0x31, 0xe3, 0xfe, 0x00, 0xde, 0x0a, 0xeb, 0xed, 0x1a, 0x05, 0x04,
  0x2a, 0x2e, 0xfc, 0x14, 0xf7, 0x0d, 0x19, 0x0b, 0xeb, 0xfb, 0xf6, 0xf5,
  0xee, 0x39, 0xfb, 0x09, 0x0d, 0x2e, 0x13, 0x12, 0x06, 0x07, 0x1a, 0x0c,
  0xdf, 0xf5, 0xec, 0x00, 0xff, 0xd7, 0x22, 0xfd, 0xf4, 0xed, 0x0a, 0x20,
  0x2e, 0x01, 0xee, 0xe8, 0xdf, 0xdf, 0xeb, 0x03, 0xff, 0x13, 0x22, 0xfc,
  0xe5, 0x08, 0xf2, 0x00, 0x34, 0xf0, 0x08, 0xe6, 0xfd, 0xf1, 0xf2, 0x04,
  0x0a, 0x00, 0x0a, 0xff, 0xdf, 0x04, 0x07, 0x03, 0x21, 0xe2, 0xf2, 0xeb,
  0xd2, 0x01, 0xf4, 0x20, 0xf0, 0xe0, 0x77, 0xd6, 0xfb, 0x2d, 0xc2, 0xe0,
  0x09, 0x30, 0x43, 0x29, 0xec, 0x57, 0xfa, 0x0a, 0x03, 0xbc, 0x7f, 0xfb,
  0x38, 0x00, 0x13, 0xfc, 0x67, 0x43, 0x42, 0x16, 0xf2, 0x24, 0xfd, 0x1e,
  0xe4, 0xe9, 0x5d, 0xda, 0x06, 0x32, 0xfc, 0x07, 0x41, 0x30, 0x09, 0x18,
  0xef, 0xc6, 0x01, 0x11, 0x01, 0xca, 0x15, 0x12, 0xfd, 0x09, 0x13, 0x0d,
  0x0d, 0xff, 0xd3, 0x20, 0x05, 0xbe, 0x27, 0xfe, 0x0f, 0xde, 0x2d, 0x1b,
  0x07, 0x22, 0x2c, 0x0d, 0xf3, 0x2f, 0x05, 0x2e, 0xfa, 0xcf, 0x17, 0xf2,
  0xf3, 0x11, 0xe4, 0xe0, 0xe2, 0xea, 0x0d, 0x2d, 0x14, 0x1d, 0xe9, 0x31,
  0xe8, 0xf0, 0xd0, 0xf6, 0xfe, 0xc7, 0x03, 0xfd, 0xfb, 0x00, 0x1c, 0x27,
  0x1f, 0xf5, 0xcb, 0x10, 0xf9, 0xcf, 0xde, 0xe9, 0x15, 0xcb, 0x08, 0xea,
  0xdf, 0xf7, 0x0a, 0xfd, 0x02, 0x0c, 0xeb, 0xf7, 0xe6, 0xf5, 0xe0, 0xf5,
  0xfb, 0xdf, 0x20, 0xd5, 0xdc, 0xfd, 0xf2, 0x03, 0x1f, 0xee, 0xc9, 0x11,
  0x36, 0xff, 0xdb, 0xe8, 0x42, 0xed, 0xde, 0x3e, 0xe8, 0xd2, 0xfa, 0x17,
  0x24, 0xde, 0xf5, 0x1a, 0x44, 0x2c, 0xbf, 0xd5, 0x4b, 0xe3, 0xd6, 0x42,
  0x08, 0xed, 0x06, 0x0b, 0x31, 0xed, 0x37, 0x1b, 0x51, 0x12, 0xba, 0xcc,
  0x29, 0xdf, 0xe5, 0x49, 0xe6, 0xe4, 0x1e, 0x06, 0x27, 0x02, 0x1b, 0x2d,
  0x00, 0x1c, 0x0a, 0xf0, 0x12, 0x13, 0xe3, 0x0e, 0xdb, 0xfb, 0xfe, 0x06,
  0xf8, 0xef, 0x04, 0x13, 0xf1, 0xea, 0xe6, 0xea, 0x13, 0x35, 0xe5, 0x09,
  0x0c, 0xe8, 0xfc, 0x0c, 0x0e, 0x25, 0x24, 0x1d, 0xf3, 0xf7, 0xf0, 0xcd,
  0x19, 0xf1, 0xe1, 0x04, 0x11, 0xf8, 0xf1, 0x25, 0x07, 0x08, 0xf5, 0x1d,
  0xc3, 0x53, 0x01, 0x2b, 0x01, 0x33, 0x15, 0x06, 0x08, 0x22, 0xda, 0x03,
  0x05, 0x49, 0x41, 0xde, 0xc0, 0x49, 0xe4, 0x2c, 0xf0, 0x25, 0x0b, 0x01,
  0x0b, 0x1a, 0x07, 0x15, 0xfa, 0x2d, 0x70, 0xe1, 0xc3, 0xf5, 0xf3, 0x22,
  0xd0, 0x21, 0x25, 0x00, 0x22, 0x2b, 0xdd, 0x32, 0xf0, 0x7f, 0x73, 0xd2,
  0x19, 0xde, 0xc5, 0xc0, 0x06, 0xbb, 0xeb, 0x34, 0xf5, 0xf5, 0x26, 0xf5,
  0x1f, 0xc0, 0xc7, 0x01, 0x35, 0xdd, 0xb9, 0xdb, 0x11, 0xc6, 0xe0, 0x1d,
  0xd6, 0x04, 0x2b, 0xd1, 0x1e, 0xba, 0xd1, 0xf6, 0x34, 0xf6, 0xae, 0xb1,
  0x2b, 0xef, 0xd2, 0x1d, 0xfd, 0xea, 0x64, 0x09, 0x18, 0xe6, 0xd6, 0xfa,
  0x2b, 0xf1, 0xf1, 0xe7, 0xeb, 0xb6, 0xb7, 0x04, 0xc5, 0xf9, 0x0a, 0xd2,
  0xdb, 0xe8, 0x22, 0x30, 0xf1, 0x17, 0xf3, 0xc4, 0xf5, 0xe5, 0xc8, 0xef,
  0xc9, 0xdf, 0xe8, 0xed, 0xef, 0xcc, 0x17, 0x37, 0xf3, 0x14, 0xdf, 0xb6,
  0x21, 0xf1, 0xbe, 0xf5, 0xd3, 0xff, 0x18, 0xdf, 0xf9, 0x12, 0xfd, 0x36,
  0xc6, 0x3b, 0x0f, 0xe3, 0x30, 0x27, 0x52, 0xe6, 0x2e, 0x20, 0xb0, 0xd3,
  0x51, 0xf3, 0x7f, 0xa9, 0xcf, 0x3b, 0xc3, 0xc8, 0x0b, 0xc8, 0x3c, 0xf5,
  0xf4, 0x3a, 0xed, 0xcc, 0x4c, 0x69, 0x12, 0xb2, 0xad, 0x5b, 0xdb, 0xeb,
  0xcf, 0x1f, 0x59, 0xe5, 0x6a, 0x1f, 0xba, 0xe3, 0x2f, 0x25, 0x4f, 0xa4,
  0x34, 0x06, 0x0e, 0x0a, 0xe8, 0xbd, 0x94, 0xfc, 0x04, 0x15, 0xe8, 0x26,
  0xaa, 0x23, 0xed, 0xce, 0x28, 0xf3, 0xe9, 0x16, 0x06, 0xf6, 0xa1, 0xff,
  0x25, 0x1a, 0x06, 0xda, 0xe3, 0xbf, 0xc2, 0xe3, 0x31, 0x0b, 0xfb, 0x1e,
  0xc1, 0x06, 0xac, 0x1f, 0xf1, 0xdc, 0xce, 0x33, 0xbc, 0x19, 0xd0, 0xe7,
  0xde, 0xfd, 0x15, 0xef, 0xd9, 0xd3, 0xb5, 0xe7, 0xff, 0x30, 0xbf, 0xf8,
  0xda, 0x13, 0x5b, 0xd7, 0xcc, 0xdb, 0x2c, 0x2d, 0x0b, 0x27, 0xc8, 0x36,
  0x0e, 0x1c, 0x0a, 0xfc, 0xc4, 0xef, 0x2b, 0xcb, 0xe4, 0x4c, 0x2a, 0x33,
  0xe4, 0xe0, 0xb1, 0xec, 0x10, 0x0c, 0xf7, 0x3e, 0xec, 0x24, 0x18, 0xb8,
  0x34, 0x75, 0xd0, 0x3b, 0x20, 0x0a, 0x30, 0xc8, 0xb1, 0x9e, 0x0c, 0xe1,
  0x67, 0xb3, 0x2d, 0xc2, 0x05, 0x3b, 0x14, 0x4a, 0x23, 0xd6, 0x10, 0xce,
  0xee, 0xaf, 0xbf, 0xe0, 0x16, 0xea, 0x06, 0xbf, 0xe9, 0x27, 0x0c, 0x37,
  0x27, 0xec, 0xfe, 0xea, 0x81, 0xf7, 0xe8, 0x3d, 0xfa, 0xe0, 0x60, 0xa8,
  0x02, 0xe3, 0xb5, 0xb6, 0xf4, 0xd1, 0xf9, 0x02, 0x04, 0xd4, 0x9e, 0xe2,
  0xd8, 0x1f, 0xbf, 0x92, 0x2b, 0xc1, 0xae, 0xe3, 0x09, 0xa8, 0xbf, 0xee,
  0x2f, 0xfa, 0xad, 0xa1, 0xef, 0xfd, 0xe3, 0xbd, 0x2e, 0xf7, 0xd2, 0xaa,
  0xdd, 0xe0, 0xc8, 0xea, 0xfa, 0xdc, 0x89, 0xe6, 0xb4, 0xd6, 0xfc, 0xba,
  0xf5, 0x04, 0xb2, 0xf6, 0xef, 0x28, 0xb7, 0xf0, 0x34, 0x31, 0x05, 0xf2,
  0xc4, 0x0e, 0x23, 0x00, 0xc5, 0x08, 0x90, 0xf9, 0x97, 0x24, 0xbc, 0xff,
  0x04, 0x48, 0x12, 0xe4, 0x95, 0x1e, 0x03, 0xfc, 0xcf, 0xe3, 0xee, 0x18,
  0xab, 0xd5, 0xda, 0x2a, 0x30, 0x20, 0x0e, 0xd7, 0xe4, 0x25, 0x1e, 0x56,
  0xec, 0x03, 0xa4, 0xeb, 0x3c, 0xfd, 0x35, 0x22, 0xe9, 0xe6, 0x11, 0x35,
  0x6b, 0xe3, 0xc9, 0x15, 0x03, 0x04, 0xc6, 0xf1, 0x0b, 0x00, 0x25, 0x2b,
  0xd6, 0xee, 0xe3, 0xc6, 0x33, 0xf7, 0xde, 0x2a, 0xfd, 0x13, 0xc5, 0xfd,
  0x41, 0x05, 0x31, 0x4d, 0xd5, 0xf6, 0x38, 0xeb, 0x7f, 0xe6, 0xe3, 0xf2,
  0xc7, 0xec, 0xde, 0xf3, 0xa9, 0xcf, 0x2c, 0xa4, 0xf4, 0x07, 0xac, 0xbe,
  0xc8, 0x08, 0x17, 0xba, 0xd7, 0x4a, 0x1e, 0x10, 0x9f, 0x13, 0x42, 0xd9,
  0x11, 0xfd, 0x9e, 0xd8, 0xe0, 0x4d, 0xc6, 0xe3, 0xa9, 0x11, 0x3f, 0xe4,
  0xc2, 0x1c, 0x16, 0x12, 0x04, 0xde, 0xa0, 0xcf, 0x09, 0xfb, 0x2e, 0xa1,
  0x1a, 0xe6, 0xe9, 0x3e, 0x16, 0xfb, 0x0f, 0x2f, 0xb2, 0xf0, 0x42, 0x0a,
  0x17, 0x98, 0xe3, 0x2a, 0xf3, 0xfc, 0xd8, 0xf3, 0x18, 0x31, 0x15, 0x20,
  0xf0, 0xd4, 0x1b, 0xe2, 0x0e, 0x81, 0xf8, 0x54, 0xb0, 0x0e, 0xfb, 0xf9,
  0xf5, 0xf0, 0xf0, 0xef, 0x9c, 0xf3, 0x3b, 0xf0, 0x19, 0xad, 0xd5, 0x37,
  0x15, 0xfd, 0xe2, 0x14, 0x87, 0xd9, 0xf7, 0x9f, 0x16, 0x1c, 0xe1, 0xc7,
  0xaa, 0x12, 0xe9, 0x1f, 0x15, 0xfc, 0xf3, 0xe1, 0x8a, 0x46, 0x15, 0xb4,
  0x25, 0x08, 0xd5, 0xce, 0x95, 0xda, 0x3b, 0x56, 0xc7, 0x3d, 0xfe, 0x0e,
  0xbb, 0xf3, 0x4f, 0xc8, 0x24, 0x4d, 0xdd, 0xc5, 0xaf, 0x03, 0x11, 0x4d,
  0xeb, 0x11, 0xe3, 0xda, 0xa1, 0xcb, 0x22, 0xd2, 0xc5, 0x18, 0x9b, 0xad,
  0xff, 0xdc, 0x0b, 0xd8, 0xbc, 0x30, 0xe6, 0xf6, 0xe8, 0x0a, 0x37, 0xf7,
  0xc2, 0xef, 0xc6, 0xe4, 0xe6, 0x03, 0x24, 0xda, 0xc9, 0x0d, 0x0b, 0xf7,
  0xaa, 0xf5, 0x4a, 0xd4, 0x11, 0xe6, 0xde, 0xca, 0xe9, 0xfd, 0xfd, 0xdc,
  0xf6, 0x0a, 0xe5, 0xf0, 0x17, 0xe9, 0xe8, 0x41, 0xab, 0xdc, 0x0b, 0x00,
  0x34, 0x89, 0xe1, 0x45, 0xe0, 0x05, 0xf1, 0xfe, 0x38, 0x00, 0x00, 0x0d,
  0xb3, 0xdf, 0xeb, 0xea, 0x2f, 0x81, 0xdc, 0x6c, 0x04, 0x03, 0xf9, 0xf4,
  0xfd, 0xdb, 0x30, 0x35, 0x9d, 0x08, 0x08, 0xee, 0x28, 0x89, 0xd7, 0x23,
  0x09, 0x35, 0x1b, 0xe8, 0xb8, 0xe6, 0xf3, 0xdf, 0x2b, 0x06, 0xcc, 0xd9,
  0xb8, 0x18, 0xfe, 0x54, 0x2e, 0xe1, 0x04, 0xde, 0xca, 0x3a, 0x48, 0xf0,
  0x21, 0x25, 0xc9, 0xaf, 0xdd, 0xe6, 0x23, 0x49, 0x20, 0x27, 0x0e, 0xfa,
  0xc5, 0xfc, 0xf9, 0xe0, 0x5a, 0x01, 0xdf, 0xa8, 0xaf, 0x2d, 0xe8, 0x0d,
  0x2d, 0x03, 0x42, 0x13, 0xe4, 0x08, 0x25, 0xd5, 0xf4, 0x23, 0x18, 0x19,
  0xd9, 0x28, 0xfe, 0x1a, 0xd5, 0x04, 0x18, 0xf8, 0xfb, 0x3a, 0x2b, 0xb5,
  0xc3, 0x1e, 0x28, 0xe5, 0x38, 0xf1, 0x07, 0x0c, 0x2b, 0xf5, 0x7f, 0x2c,
  0x0d, 0x17, 0x05, 0xba, 0x18, 0x25, 0xf7, 0x29, 0xce, 0x3f, 0x13, 0x17,
  0x0f, 0xb0, 0x41, 0x0a, 0xe3, 0xc1, 0xea, 0xf4, 0xe6, 0xdb, 0x29, 0x38,
  0xef, 0xce, 0xec, 0xd3, 0xbe, 0xcd, 0x0c, 0x13, 0x0e, 0xea, 0x10, 0x14,
  0xf4, 0x07, 0x1c, 0x4b, 0x09, 0xf5, 0xb7, 0xfe, 0x19, 0xcf, 0x12, 0xfc,
  0x0e, 0xae, 0xcd, 0x1f, 0xd4, 0xc0, 0x39, 0x19, 0x1c, 0xd5, 0xbc, 0xfb,
  0x7b, 0xd3, 0x3e, 0x4b, 0x2a, 0xfd, 0xf7, 0x5d, 0xed, 0xe0, 0xe1, 0x51,
  0x09, 0xf9, 0xc0, 0xe1, 0x4b, 0x1a, 0x33, 0x20, 0x45, 0xf5, 0xf5, 0xdc,
  0x19, 0x10, 0x48, 0x05, 0x37, 0xf4, 0xbe, 0xff, 0x6d, 0xe4, 0x45, 0x19,
  0x4d, 0xf4, 0x1f, 0xf3, 0x08, 0xd0, 0x05, 0x00, 0xe9, 0x0b, 0xdc, 0xf2,
  0x2d, 0xe3, 0xd3, 0xf4, 0xb2, 0xa0, 0x8b, 0xea, 0x00, 0xe6, 0x0a, 0x1c,
  0x90, 0x2c, 0x21, 0xd0, 0x7f, 0xab, 0xc1, 0xc8, 0xfe, 0xae, 0xea, 0xec,
  0x19, 0xb3, 0x0e, 0x25, 0xdd, 0x0e, 0xd4, 0xe9, 0x44, 0xaf, 0x17, 0x08,
  0xa8, 0xee, 0xb8, 0xa7, 0x00, 0xd9, 0xb7, 0x28, 0xec, 0x20, 0xf7, 0xd4,
  0xcb, 0xbf, 0xfb, 0x30, 0xce, 0x10, 0xb0, 0xd8, 0x0f, 0x46, 0xd8, 0x17,
  0xcc, 0xc9, 0xc5, 0xd7, 0xd5, 0x15, 0x00, 0xff, 0xbb, 0xbb, 0x0d, 0xa7,
  0x12, 0xea, 0x1f, 0xe3, 0xe2, 0x3d, 0xe7, 0xa1, 0xc4, 0xbd, 0x37, 0x13,
  0xc1, 0xf9, 0xb6, 0xf2, 0x42, 0xf8, 0xc4, 0x0b, 0x95, 0xcf, 0xe0, 0x9d,
  0xe1, 0x0b, 0xac, 0x40, 0x31, 0x00, 0x88, 0x63, 0x0a, 0xdb, 0x37, 0x50,
  0x15, 0xbe, 0x23, 0xd8, 0x46, 0xa4, 0x2f, 0x27, 0xc0, 0xbd, 0xa7, 0x48,
  0xa2, 0xe6, 0xd0, 0x52, 0xeb, 0xad, 0xb4, 0xad, 0x17, 0x3c, 0xda, 0xf7,
  0xdc, 0x17, 0x06, 0xbb, 0xed, 0xa5, 0x30, 0x1a, 0x14, 0xe3, 0x1f, 0x82,
  0xf4, 0xfc, 0x00, 0xf3, 0xfa, 0x03, 0x22, 0x36, 0xdb, 0xb2, 0x22, 0x39,
  0x4a, 0x89, 0xd6, 0x45, 0xf3, 0x04, 0x1d, 0xfc, 0x23, 0xdc, 0x12, 0x3e,
  0xd0, 0xf5, 0x3b, 0x13, 0x0c, 0x88, 0xf2, 0x08, 0x05, 0xbf, 0xf3, 0xf3,
  0x3a, 0xe5, 0x2d, 0x4d, 0xab, 0x16, 0x3b, 0x21, 0x2c, 0x86, 0x10, 0x1b,
  0x18, 0xfe, 0xfe, 0xe8, 0xd8, 0x1f, 0x11, 0x09, 0x60, 0x1e, 0x2d, 0xea,
  0xdc, 0x25, 0xdf, 0x4b, 0x18, 0xec, 0x08, 0xe0, 0xef, 0x0c, 0x05, 0x0f,
  0x30, 0x31, 0x4c, 0xe0, 0x01, 0x3b, 0xf3, 0x36, 0x07, 0xe6, 0xfe, 0xf4,
  0xe7, 0x37, 0x1b, 0xf0, 0x2f, 0x7f, 0x3e, 0xe4, 0x00, 0x14, 0x27, 0x52,
  0x29, 0x06, 0xed, 0xea, 0x05, 0xfb, 0xf2, 0x42, 0x35, 0x13, 0x38, 0xff,
  0x1d, 0xef, 0xe2, 0xfc, 0x1a, 0xf2, 0x01, 0xfd, 0xfc, 0x0d, 0x0d, 0x23,
  0x18, 0x10, 0x3a, 0xe4, 0x20, 0x0c, 0xfa, 0x27, 0x01, 0xfc, 0xf1, 0xfa,
  0x0b, 0xf6, 0xfa, 0x2a, 0xfa, 0x3f, 0x2a, 0xe9, 0x3c, 0xf8, 0xee, 0x22,
  0x16, 0xf7, 0xcc, 0xfa, 0x29, 0xcd, 0xeb, 0x42, 0x2c, 0xfb, 0xfa, 0x19,
  0xeb, 0x32, 0xf0, 0xef, 0x18, 0xe7, 0xc0, 0xf7, 0x1d, 0xce, 0x0d, 0x26,
  0x36, 0x08, 0xfe, 0x24, 0x0a, 0x17, 0x07, 0x01, 0x0f, 0x21, 0xc1, 0xea,
  0x2d, 0xb7, 0xe0, 0x0b, 0x33, 0xfb, 0xfd, 0x13, 0x20, 0x0f, 0xdc, 0xfa,
  0xca, 0x09, 0xf6, 0x07, 0x1e, 0x30, 0xf9, 0xf4, 0xff, 0x04, 0x03, 0x0e,
  0xf7, 0x1c, 0x37, 0xef, 0xc5, 0x10, 0xe5, 0xf6, 0x17, 0x01, 0xdc, 0xfb,
  0x0a, 0x29, 0xd7, 0x36, 0xcf, 0x25, 0x19, 0x07, 0xeb, 0xec, 0xf0, 0xf0,
  0x28, 0x0c, 0xd4, 0x14, 0xea, 0xdd, 0xf3, 0xf9, 0x00, 0x72, 0xfd, 0xe6,
  0xbf, 0x48, 0x11, 0x52, 0xf1, 0x4e, 0xf4, 0xc3, 0xe8, 0xf8, 0xd7, 0x3f,
  0x20, 0x25, 0x4c, 0xcc, 0xb5, 0xfd, 0x07, 0x41, 0xe9, 0x2f, 0x05, 0xc2,
  0xdc, 0x28, 0xcd, 0x3e, 0xd8, 0x43, 0x7f, 0xe7, 0xa5, 0x71, 0x1c, 0x63,
  0xe6, 0x43, 0xeb, 0xe6, 0xf5, 0xe7, 0xcf, 0x3b, 0xf1, 0x5d, 0x24, 0xc2,
  0x3c, 0xad, 0xb7, 0xde, 0x35, 0x96, 0xa8, 0xcf, 0x50, 0xe9, 0xc3, 0xc3,
  0xeb, 0x07, 0xd9, 0xaf, 0x14, 0xdf, 0xca, 0x9e, 0xdd, 0xc0, 0x96, 0x04,
  0x0e, 0xcb, 0xd3, 0xc9, 0x9d, 0xe3, 0x1c, 0x97, 0x48, 0xf6, 0xa8, 0xdb,
  0x04, 0xf2, 0xd4, 0x28, 0xca, 0xd1, 0x81, 0xc8, 0xf4, 0x01, 0xa6, 0xa5,
  0xae, 0xec, 0xf0, 0xf5, 0xf0, 0xdf, 0xb4, 0xea, 0x41, 0x3f, 0x49, 0xf5,
  0xd4, 0x03, 0xd1, 0xf1, 0xa3, 0x05, 0xea, 0xac, 0x97, 0xf4, 0xb7, 0xbe,
  0x3f, 0x13, 0xec, 0xd1, 0xa4, 0x1d, 0x02, 0x46, 0xd0, 0x16, 0xd4, 0x00,
  0xc5, 0xbd, 0x9a, 0x2e, 0xe4, 0xf5, 0xfd, 0xd0, 0xbd, 0x21, 0x1a, 0x3f,
  0x34, 0xc1, 0x90, 0x14, 0x5d, 0x0f, 0x08, 0x41, 0xf5, 0xe5, 0x3d, 0x29,
  0x5b, 0xae, 0xd6, 0x33, 0x0d, 0xeb, 0xc0, 0x20, 0x58, 0x1f, 0x05, 0xff,
  0xa5, 0x36, 0xe1, 0x1f, 0x07, 0xdd, 0xe9, 0xe5, 0x2c, 0xeb, 0xa2, 0x02,
  0x47, 0xd5, 0x11, 0x6c, 0xe0, 0xb4, 0xd3, 0x00, 0x6d, 0xba, 0x23, 0xc4,
  0xdc, 0x3f, 0x10, 0x13, 0xee, 0x1c, 0x14, 0xea, 0x2c, 0x1f, 0xc7, 0xfe,
  0xde, 0xf7, 0xeb, 0x10, 0xe4, 0x2d, 0x1c, 0x28, 0xe5, 0x2d, 0x05, 0x14,
  0x28, 0x21, 0xda, 0x11, 0xef, 0xfb, 0x37, 0x01, 0xc7, 0x07, 0x13, 0x0b,
  0xe5, 0x24, 0x58, 0x12, 0x14, 0x30, 0xeb, 0x13, 0x0d, 0xf1, 0x01, 0x13,
  0xf5, 0xe5, 0x2e, 0x10, 0xdc, 0x20, 0x1b, 0xd0, 0x1d, 0x10, 0xd3, 0xef,
  0xd4, 0xf1, 0xfd, 0x0e, 0x09, 0x0e, 0x1d, 0xfb, 0xca, 0x25, 0x0b, 0xe4,
  0x15, 0x19, 0xe6, 0x00, 0xe0, 0xfb, 0x05, 0x19, 0xf1, 0xfa, 0x19, 0x05,
  0xcd, 0x7f, 0x16, 0xf2, 0x25, 0x27, 0xcb, 0xd2, 0xd0, 0x14, 0x16, 0x24,
  0xec, 0xf8, 0x11, 0xec, 0xd8, 0xf5, 0xec, 0xce, 0xf2, 0xee, 0xe8, 0x05,
  0xba, 0xfb, 0xee, 0x12, 0xeb, 0xec, 0x0f, 0x14, 0xcd, 0x34, 0xdb, 0xc3,
  0xf9, 0xf3, 0xdd, 0x07, 0xb8, 0x05, 0x1d, 0xfe, 0xed, 0x0b, 0x23, 0x29,
  0xc9, 0x1a, 0xe6, 0xc8, 0xe9, 0xe3, 0xf0, 0x08, 0xcc, 0x15, 0xfc, 0x0a,
  0xcf, 0xf3, 0xf0, 0xcf, 0xca, 0x53, 0xf5, 0xeb, 0x02, 0x48, 0x24, 0x16,
  0x09, 0xde, 0xed, 0x27, 0xc5, 0xc1, 0xf1, 0xec, 0xd5, 0x33, 0xd6, 0xc1,
  0xca, 0x1a, 0x1b, 0xf0, 0xe0, 0xff, 0xdf, 0x49, 0xd4, 0xbb, 0xb2, 0xd6,
  0xd9, 0x68, 0x0c, 0xd1, 0x0d, 0x05, 0x23, 0x02, 0xd3, 0x39, 0xd9, 0x33,
  0xe8, 0x41, 0xcb, 0xd4, 0xe7, 0xd1, 0x3a, 0xeb, 0xea, 0x21, 0xf9, 0xcb,
  0x39, 0xc0, 0xcb, 0x0f, 0xdf, 0x0b, 0xd2, 0xbf, 0xe9, 0xe5, 0x53, 0xe4,
  0xea, 0x05, 0xfa, 0xe8, 0x25, 0x2d, 0xe9, 0x41, 0xf8, 0x11, 0xb5, 0xe4,
  0xed, 0x06, 0x1c, 0xae, 0x16, 0x06, 0xff, 0xc9, 0x24, 0x3e, 0x05, 0x44,
  0xdb, 0xb4, 0xf6, 0x0e, 0x31, 0x03, 0xf3, 0xf3, 0xda, 0xff, 0x4a, 0xeb,
  0x5e, 0x4a, 0x92, 0x57, 0xf3, 0x92, 0xe5, 0xeb, 0x25, 0xf3, 0xf5, 0xf7,
  0xed, 0x10, 0x25, 0xfb, 0x25, 0xea, 0x87, 0x7f, 0xdf, 0x9a, 0xf7, 0xd8,
  0x0a, 0xfc, 0xed, 0xcd, 0x07, 0x5a, 0x48, 0xea, 0x2f, 0xe8, 0xb0, 0x7e,
  0xff, 0xeb, 0x1d, 0x17, 0x06, 0x00, 0xde, 0xd5, 0x26, 0xc9, 0x00, 0x42,
  0xba, 0xed, 0x18, 0x9b, 0xe3, 0xc0, 0x4a, 0x60, 0x0f, 0xd8, 0xa0, 0xfb,
  0x22, 0xfb, 0xf8, 0xda, 0xb4, 0xde, 0xca, 0xd3, 0xf0, 0x00, 0xe7, 0x36,
  0xfb, 0xb3, 0xa5, 0xc5, 0x32, 0xf5, 0xf5, 0x39, 0xb8, 0xbf, 0x08, 0xb3,
  0x1e, 0xbf, 0x47, 0x66, 0x02, 0xac, 0xb9, 0x3f, 0x1a, 0x33, 0x02, 0x14,
  0x2d, 0x0b, 0xce, 0xa8, 0x2f, 0x3c, 0x5d, 0x0d, 0x2f, 0xa7, 0xc4, 0xc9,
  0xdf, 0x21, 0xe6, 0x22, 0x10, 0xe0, 0x3d, 0x8a, 0x1e, 0x34, 0x59, 0x50,
  0x16, 0xa4, 0xae, 0x4b, 0xf9, 0xf7, 0xd5, 0x36, 0xec, 0x46, 0xd9, 0xc3,
  0xf0, 0x1e, 0x06, 0x7f, 0x0f, 0x37, 0xa9, 0x65, 0x10, 0x16, 0xec, 0x5c,
  0xe9, 0xa0, 0xbb, 0xd1, 0x50, 0x03, 0xcc, 0x62, 0x10, 0xde, 0xeb, 0x9d,
  0xba, 0xaf, 0xd4, 0x18, 0xc3, 0xeb, 0x09, 0xda, 0x08, 0x2a, 0x56, 0x45,
  0xb9, 0xd0, 0x26, 0xe0, 0xe8, 0xc5, 0xcf, 0x05, 0x15, 0xba, 0xeb, 0x9e,
  0x12, 0xc5, 0xd2, 0xff, 0xea, 0xe3, 0xd0, 0xe2, 0xf4, 0xc6, 0xd2, 0xe9,
  0x33, 0xc0, 0xe9, 0x81, 0x0d, 0xef, 0xd6, 0xf6, 0xdb, 0xdd, 0xd7, 0xfb,
  0xe5, 0xb4, 0xb2, 0xd7, 0x23, 0xe7, 0xbc, 0x8b, 0x2c, 0xcc, 0xf8, 0xe5,
  0x06, 0xbf, 0xde, 0xe3, 0xf4, 0xdf, 0xbb, 0xe2, 0xef, 0xb7, 0xca, 0x99,
  0xf1, 0x09, 0xf5, 0xeb, 0xe2, 0xd5, 0xaa, 0xcb, 0x04, 0xe8, 0xfd, 0xe6,
  0xf7, 0x27, 0x0a, 0x27, 0xfe, 0x18, 0xfb, 0xe8, 0xbc, 0xdd, 0xa9, 0xe6,
  0x27, 0xd1, 0xe6, 0x08, 0xfe, 0x39, 0xf2, 0x36, 0x02, 0xf2, 0xec, 0x35,
  0xfa, 0xd6, 0xa9, 0x13, 0xdd, 0x11, 0x08, 0xf9, 0xb8, 0x1b, 0xec, 0x32,
  0xf9, 0x27, 0xec, 0x25, 0x3a, 0xc9, 0x4e, 0x1d, 0xc9, 0xed, 0xf2, 0x28,
  0x51, 0xc3, 0x22, 0xec, 0xf9, 0xd6, 0xdb, 0xdd, 0xf8, 0xc9, 0x3b, 0xdb,
  0xf0, 0xfb, 0x10, 0xf4, 0x23, 0x00, 0x02, 0xe1, 0xf8, 0xf6, 0xd5, 0xe1,
  0x22, 0xe9, 0x53, 0x31, 0xe0, 0xfd, 0x20, 0x2f, 0x47, 0xee, 0xf6, 0x0c,
  0xca, 0x1c, 0xf0, 0xbc, 0xb6, 0x21, 0x17, 0xcd, 0xc3, 0xc6, 0x99, 0xd8,
  0xeb, 0xf2, 0xf5, 0xb9, 0xda, 0x2b, 0xf4, 0xbd, 0xd3, 0x05, 0x44, 0x07,
  0xf3, 0x1b, 0xd9, 0xf0, 0xd7, 0x0c, 0x29, 0xfd, 0xd0, 0xec, 0xe3, 0xee,
  0xbb, 0x0d, 0x36, 0xef, 0x0a, 0x0a, 0xdb, 0xbf, 0xe2, 0xf1, 0x19, 0xa7,
  0xf1, 0xdb, 0x06, 0xfb, 0x0d, 0xdc, 0x31, 0x08, 0xc5, 0xef, 0x26, 0xff,
  0x24, 0x87, 0xdb, 0x3c, 0xeb, 0xe7, 0xef, 0x06, 0xf8, 0xfa, 0x3f, 0x07,
  0xc3, 0xe0, 0x0f, 0xfc, 0x08, 0x81, 0xe1, 0x42, 0xe4, 0xed, 0x07, 0xe3,
  0x0a, 0xff, 0x05, 0x0d, 0xa7, 0xe3, 0xef, 0x07, 0x40, 0x89, 0xec, 0x4a,
  0xf9, 0xea, 0xea, 0xf8, 0xb7, 0x28, 0x37, 0xcb, 0x2d, 0x3a, 0xc9, 0xb9,
  0xc2, 0x02, 0xf5, 0x32, 0x1f, 0xfd, 0x18, 0xda, 0xc5, 0xf7, 0x35, 0xb4,
  0x41, 0xf9, 0xc5, 0xad, 0xad, 0x2f, 0x09, 0x6c, 0x13, 0x2d, 0xf6, 0xf9,
  0xd7, 0x34, 0x16, 0xae, 0x45, 0x2e, 0xc0, 0xc6, 0xc4, 0xfb, 0x0a, 0x2a,
  0x12, 0xd9, 0x24, 0x19, 0xe3, 0xf3, 0xb5, 0x02, 0x14, 0xc7, 0xee, 0x08,
  0xbd, 0xd6, 0x0c, 0xcb, 0x3d, 0x16, 0xf8, 0x1b, 0xdc, 0x07, 0xb9, 0xf7,
  0x14, 0xe0, 0x14, 0x15, 0xba, 0x01, 0x14, 0xa7, 0x35, 0xdc, 0x3c, 0xfa,
  0xd3, 0xc8, 0xb5, 0xf9, 0x11, 0xff, 0xdc, 0xec, 0xb1, 0x2e, 0xdd, 0xd3,
  0xfb, 0x18, 0x13, 0x04, 0x23, 0x05, 0xcd, 0xec, 0x4b, 0x27, 0x08, 0x20,
  0xc4, 0x3f, 0xfd, 0xf9, 0xd4, 0x35, 0xf2, 0x38, 0xe9, 0x15, 0x06, 0xeb,
  0xeb, 0x02, 0xbd, 0xf2, 0x04, 0xf6, 0x27, 0xfc, 0xe7, 0x1c, 0x18, 0x45,
  0x10, 0xde, 0xe4, 0x34, 0x4b, 0x0f, 0xca, 0x19, 0xbf, 0x3c, 0x25, 0xd5,
  0xdf, 0x3f, 0xd6, 0x28, 0xe0, 0xdf, 0x0d, 0x10, 0xce, 0xc8, 0xd5, 0x1c,
  0x7f, 0xbc, 0xeb, 0xf7, 0x1a, 0x43, 0xdf, 0xda, 0x5e, 0x04, 0x35, 0xd3,
  0xe2, 0xb9, 0x17, 0xd8, 0x2a, 0xe4, 0xf5, 0xc7, 0x0a, 0x00, 0xf9, 0xfe,
  0x18, 0xcd, 0x3e, 0x10, 0xdc, 0xae, 0xd4, 0x12, 0x49, 0xce, 0x29, 0xbd,
  0x14, 0xd8, 0xe9, 0x10, 0x09, 0xda, 0xe2, 0x2f, 0x1b, 0xf5, 0x04, 0x03,
  0x02, 0xe2, 0xf0, 0xf5, 0x0d, 0x11, 0xde, 0x05, 0x1e, 0xc7, 0xd0, 0x21,
  0x23, 0x0c, 0x0b, 0xfe, 0xfb, 0xf7, 0xf4, 0x09, 0x1c, 0x0f, 0xe1, 0xfb,
  0x2e, 0xe6, 0xda, 0x13, 0x21, 0xf5, 0x0f, 0x10, 0x01, 0xd4, 0xe8, 0x00,
  0xe8, 0x17, 0x0e, 0x0a, 0x09, 0x26, 0xcd, 0x0a, 0x02, 0xe5, 0xef, 0x03,
  0xd4, 0xed, 0x34, 0x09, 0xe7, 0x2b, 0xef, 0xf8, 0x09, 0x07, 0xe6, 0xf4,
  0xf6, 0xff, 0xe2, 0xfa, 0xef, 0x06, 0x44, 0x1d, 0xf8, 0x0a, 0x0a, 0x09,
  0x06, 0x20, 0xdf, 0xfa, 0xed, 0xef, 0xe7, 0xf1, 0xfb, 0x14, 0x0f, 0x0b,
  0xb5, 0x6f, 0x03, 0x2e, 0x0b, 0x4a, 0x3e, 0xe3, 0xee, 0xec, 0xcb, 0x19,
  0xfc, 0x24, 0x32, 0xcf, 0xc6, 0x7f, 0x02, 0x18, 0x09, 0x17, 0x04, 0xfb,
  0xd2, 0xf2, 0xc5, 0x1e, 0xfb, 0x21, 0x7b, 0xc2, 0xc3, 0x23, 0xf9, 0x39,
  0xde, 0x28, 0x2d, 0xe8, 0x16, 0xe7, 0xb1, 0x01, 0x11, 0x22, 0x53, 0xa4,
  0x5b, 0x0a, 0x9b, 0xd9, 0x1b, 0xde, 0x18, 0x4a, 0x02, 0xec, 0xf3, 0xe3,
  0x38, 0x2b, 0x06, 0x0e, 0x53, 0x34, 0xaf, 0xc7, 0x22, 0xd6, 0x16, 0x48,
  0xff, 0x1e, 0x10, 0xdf, 0x04, 0x38, 0xee, 0x23, 0x57, 0x1f, 0xb5, 0xc2,
  0x66, 0xc5, 0xd0, 0x22, 0x09, 0xee, 0x1a, 0xf0, 0x0a, 0x05, 0x02, 0x0d,
  0xf4, 0x0e, 0xce, 0xe2, 0x2d, 0x1e, 0x2f, 0x1c, 0x0c, 0x26, 0x03, 0x22,
  0x25, 0x0e, 0x39, 0xf1, 0xeb, 0x60, 0xbd, 0xf8, 0x21, 0x1e, 0xf5, 0xff,
  0xef, 0x14, 0x28, 0x11, 0x06, 0x54, 0x36, 0x38, 0xed, 0x3e, 0xd7, 0xde,
  0x45, 0xf7, 0xe7, 0x10, 0x08, 0x21, 0x01, 0x0e, 0x37, 0x6e, 0x62, 0xf4,
  0xd9, 0x5f, 0xe6, 0x1c, 0x14, 0x03, 0x35, 0x00, 0xe3, 0x52, 0x20, 0x0f,
  0x1b, 0x63, 0x05, 0x21, 0xb5, 0x7e, 0xc4, 0x26, 0x29, 0xf9, 0xfb, 0x0e,
  0x15, 0x5e, 0x15, 0x3c, 0x0c, 0x7d, 0x58, 0x3a, 0xb1, 0x55, 0xe8, 0x03,
  0x05, 0x0b, 0xe1, 0x22, 0x1c, 0x0b, 0xfd, 0x47, 0x10, 0x7f, 0x78, 0xdf,
  0x28, 0xfe, 0x13, 0x12, 0xf9, 0x22, 0x66, 0xec, 0xaf, 0x3c, 0xe7, 0x05,
  0x09, 0xcd, 0x1a, 0x4f, 0xf1, 0x39, 0x43, 0x44, 0xd4, 0x1d, 0x0d, 0xe1,
  0xe6, 0x1a, 0x00, 0x1c, 0xdd, 0xfa, 0x0b, 0x14, 0xe2, 0x1b, 0x26, 0x0f,
  0xc6, 0x21, 0x3e, 0xb8, 0x3d, 0x3d, 0x30, 0xee, 0xef, 0x18, 0x1a, 0x7f,
  0x10, 0xd3, 0xfe, 0xe1, 0x06, 0xfa, 0x24, 0xea, 0xda, 0x08, 0x14, 0x51,
  0x54, 0xf5, 0xc4, 0x3c, 0xf0, 0xd6, 0x31, 0xf5, 0x31, 0xd0, 0xec, 0xf4,
  0x02, 0xd4, 0x47, 0x0b, 0xdf, 0xd4, 0xc5, 0xea, 0x08, 0xac, 0xfc, 0xfb,
  0x02, 0xe3, 0x2a, 0xf5, 0x13, 0xb7, 0x1b, 0x4f, 0x00, 0xe2, 0x8c, 0x50,
  0x48, 0xcd, 0x5d, 0x05, 0x31, 0xe5, 0x24, 0x31, 0xbf, 0xc4, 0x2f, 0x15,
  0x68, 0xf5, 0xc0, 0xf5, 0xff, 0xb2, 0x52, 0x1e, 0x3e, 0xea, 0x0b, 0x35,
  0x13, 0x11, 0xeb, 0x3d, 0x08, 0x04, 0xaa, 0x32, 0x01, 0xdd, 0x26, 0xf7,
  0x45, 0xd2, 0x29, 0xfb, 0xc8, 0x0d, 0x07, 0x31, 0x14, 0x03, 0xa8, 0x15,
  0x3c, 0xf4, 0xaf, 0xf0, 0x23, 0xb8, 0xfd, 0x4e, 0x32, 0x07, 0x1f, 0x0f,
  0x16, 0xf7, 0xcf, 0x2a, 0x3a, 0xeb, 0xcb, 0xe5, 0x42, 0xd8, 0xf8, 0x48,
  0x12, 0x17, 0x1a, 0xef, 0x33, 0x13, 0xfa, 0x32, 0x3d, 0x04, 0xb9, 0xd0,
  0x47, 0xfb, 0xf8, 0x5b, 0x0f, 0x15, 0x37, 0x03, 0x10, 0x1f, 0xf1, 0x20,
  0xfa, 0x1a, 0xdb, 0xf2, 0x2c, 0xf6, 0xd5, 0x2e, 0xd0, 0x03, 0xd7, 0xf5,
  0x26, 0x12, 0x14, 0xfb, 0xe8, 0xf5, 0xdf, 0xf1, 0x2f, 0x09, 0xf0, 0x0a,
  0xd3, 0x1a, 0xdc, 0x00, 0x08, 0x2d, 0x3e, 0x15, 0xf4, 0x33, 0xd8, 0xdf,
  0x3b, 0x14, 0xfb, 0x1e, 0xf2, 0xf8, 0xec, 0xf7, 0x02, 0x37, 0x0f, 0x09,
  0xbb, 0x7f, 0xf3, 0x1a, 0x1b, 0x09, 0x27, 0x11, 0xf2, 0x0f, 0xc2, 0x2b,
  0x2f, 0x66, 0x60, 0xdb, 0xb9, 0x45, 0xcc, 0x35, 0xf5, 0x16, 0x08, 0x0a,
  0xdb, 0x2d, 0xd4, 0x00, 0x1b, 0x0c, 0x17, 0xd9, 0xbd, 0x55, 0xeb, 0x25,
  0xf3, 0xd8, 0x09, 0x10, 0xfc, 0xfa, 0xc6, 0x01, 0x23, 0x3e, 0x76, 0xc6,
  0xe7, 0xa3, 0xe4, 0xff, 0xff, 0xd3, 0xfe, 0x14, 0xbf, 0xfd, 0x08, 0x14,
  0x08, 0xd9, 0xb1, 0xfd, 0x20, 0x97, 0xc6, 0x0b, 0x0b, 0xbb, 0xf8, 0x6b,
  0xbd, 0xfc, 0x4e, 0x4f, 0x20, 0xeb, 0xc9, 0xc5, 0x12, 0xbf, 0x2f, 0xbf,
  0xf5, 0xf2, 0xeb, 0x04, 0x00, 0x07, 0x6a, 0x06, 0xf7, 0x8c, 0xea, 0xe0,
  0x02, 0x38, 0xee, 0xd6, 0x0b, 0x12, 0x33, 0xdb, 0x04, 0xe6, 0xe2, 0xfe,
  0xe2, 0x12, 0x4b, 0xf4, 0xd0, 0x24, 0x03, 0xe1, 0x0c, 0xd3, 0x2a, 0xe6,
  0x37, 0x24, 0xe9, 0xea, 0x38, 0x40, 0x44, 0x00, 0x2a, 0x5c, 0x34, 0x26,
  0xda, 0x07, 0xfa, 0xab, 0x26, 0xf5, 0xee, 0xff, 0xf4, 0xec, 0x0b, 0xe6,
  0xb9, 0x8c, 0xc6, 0xfc, 0xf9, 0xcc, 0xc7, 0x27, 0x30, 0x35, 0x2f, 0x03,
  0x24, 0x1e, 0xaf, 0x30, 0xb1, 0x9b, 0xaa, 0xeb, 0x03, 0xeb, 0xf0, 0xf8,
  0xed, 0x20, 0x18, 0xe1, 0x18, 0x0a, 0x81, 0xd2, 0xb5, 0xaa, 0xe8, 0x00,
  0x2e, 0xb0, 0xd8, 0x12, 0x02, 0x2c, 0x6b, 0xfa, 0x14, 0xf7, 0x86, 0x22,
  0x0a, 0xb3, 0x0d, 0x14, 0x28, 0xf8, 0xa2, 0xc5, 0x4d, 0xcd, 0x4f, 0x2f,
  0xe1, 0xee, 0xb7, 0xe7, 0x3c, 0xd9, 0xe5, 0x51, 0xe4, 0xc6, 0xf1, 0x16,
  0x19, 0x1f, 0x1c, 0xe7, 0xd5, 0x03, 0x0a, 0x8b, 0x25, 0x22, 0x4d, 0xec,
  0xd3, 0xc8, 0xf3, 0xbe, 0xed, 0x1a, 0x2b, 0xd5, 0xee, 0x24, 0xc5, 0x81,
  0x46, 0xf4, 0x2e, 0x3f, 0xf6, 0xef, 0xd4, 0xde, 0xf0, 0xaa, 0x05, 0x42,
  0x96, 0x08, 0xe0, 0x17, 0xec, 0xdc, 0x06, 0x58, 0xd1, 0x23, 0x9f, 0xde,
  0xbb, 0xab, 0xe8, 0x0f, 0xbc, 0xd6, 0x44, 0xd5, 0x10, 0x0b, 0x1b, 0x1e,
  0xce, 0x41, 0xc1, 0xc7, 0xd1, 0xbc, 0x10, 0xe8, 0xbe, 0xee, 0x1b, 0xe7,
  0x19, 0x0c, 0x45, 0x23, 0x0b, 0x02, 0xe8, 0xbe, 0xac, 0xfb, 0xd0, 0xd9,
  0x45, 0xf8, 0x4a, 0xb1, 0x4c, 0x2a, 0x26, 0x55, 0x1f, 0xeb, 0x27, 0x21,
  0xed, 0xd8, 0xec, 0xd2, 0xe7, 0x1a, 0x1f, 0x15, 0x3f, 0x23, 0x75, 0x6b,
  0x1d, 0x14, 0x1d, 0x03, 0xc6, 0xf0, 0xb9, 0x06, 0xf4, 0xd7, 0x35, 0xd1,
  0x02, 0xec, 0xfd, 0x07, 0x17, 0xda, 0xff, 0x17, 0x03, 0xf5, 0x0b, 0x06,
  0xf6, 0xcc, 0x01, 0xf9, 0x0c, 0x0b, 0xf6, 0x06, 0x0c, 0xda, 0xfb, 0x06,
  0x07, 0x10, 0x0b, 0x10, 0x0e, 0xe2, 0xfa, 0x15, 0x0b, 0x06, 0xe5, 0xfd,
  0x1a, 0xe8, 0x09, 0x13, 0xf4, 0xf0, 0x03, 0x15, 0x03, 0xcf, 0x1b, 0x08,
  0xf1, 0x17, 0x10, 0xef, 0xf4, 0xff, 0xef, 0xdb, 0xd9, 0x0a, 0xf1, 0x02,
  0xdb, 0xde, 0x17, 0x1d, 0xfb, 0xe6, 0x06, 0xe5, 0xfa, 0x12, 0xf5, 0xdc,
  0xd2, 0x0d, 0xf4, 0xe8, 0xc9, 0xda, 0x32, 0x1f, 0xf6, 0x03, 0x0d, 0xde,
  0xfb, 0x0a, 0xe6, 0xde, 0xd0, 0xf6, 0xe9, 0x00, 0xd8, 0x06, 0xe6, 0x29,
  0xd6, 0x4d, 0x19, 0x10, 0xee, 0xe5, 0x2c, 0xd6, 0x0d, 0x0d, 0xba, 0x09,
  0x0b, 0x48, 0x7f, 0xd1, 0xc1, 0x2a, 0xec, 0x10, 0xda, 0x0f, 0x1f, 0xec,
  0xe4, 0xe8, 0xe2, 0x0a, 0xff, 0x5f, 0x0c, 0xb3, 0xb7, 0x5e, 0xf8, 0x0b,
  0xd6, 0x20, 0x06, 0xdb, 0x36, 0xe8, 0xc4, 0xf0, 0x17, 0x2a, 0x40, 0xa9,
  0x0f, 0x1b, 0x0d, 0x12, 0xd6, 0xd8, 0xf0, 0xd2, 0xba, 0xc3, 0x36, 0xdd,
  0x0b, 0xc0, 0xbe, 0x33, 0xf5, 0xc3, 0x05, 0x3f, 0x44, 0x1c, 0xef, 0x1d,
  0xf6, 0x3d, 0x38, 0x49, 0x36, 0xfe, 0xef, 0x15, 0x29, 0xb9, 0x1b, 0xeb,
  0x0d, 0xf2, 0x07, 0x8a, 0xf3, 0xba, 0x25, 0x09, 0xfd, 0x13, 0xd9, 0xce,
  0xd7, 0xf8, 0x54, 0x0a, 0x15, 0xc9, 0xff, 0x04, 0x2e, 0xe1, 0xbd, 0xe0,
  0xd6, 0x26, 0x19, 0xaf, 0xa5, 0x1d, 0x77, 0x48, 0xd3, 0x25, 0xbd, 0xf2,
  0xf0, 0x98, 0x32, 0x10, 0xa7, 0xc8, 0xbd, 0xec, 0xdd, 0xdc, 0xd0, 0x01,
  0xb7, 0x05, 0xab, 0xed, 0xee, 0xd3, 0xf7, 0x55, 0xc6, 0xdd, 0x10, 0xc3,
  0x3d, 0x81, 0x1f, 0xe7, 0xbc, 0x0d, 0x88, 0x5d, 0x01, 0x60, 0xf4, 0x70,
  0x10, 0xe4, 0xa1, 0x18, 0xfa, 0xe5, 0x08, 0x49, 0xd1, 0xa6, 0xf8, 0x25,
  0xeb, 0x05, 0x5b, 0x7e, 0xeb, 0x06, 0x8c, 0xc9, 0x30, 0xda, 0x3f, 0x38,
  0x2b, 0xd2, 0xbd, 0x5e, 0x2f, 0x04, 0x00, 0x34, 0x1d, 0xbf, 0x84, 0xb0,
  0x5f, 0xe8, 0x2a, 0x1f, 0xe4, 0xaa, 0xbf, 0xe9, 0x3e, 0xd1, 0xab, 0xdf,
  0xba, 0xdc, 0xdf, 0x8a, 0x55, 0xd7, 0x01, 0xf3, 0xe7, 0xb2, 0xdc, 0xd6,
  0xf9, 0x10, 0xc7, 0x0a, 0x9b, 0xdb, 0xb2, 0x83, 0x36, 0xaa, 0x2b, 0x09,
  0xec, 0xa3, 0x90, 0xc0, 0x3e, 0xce, 0x0a, 0xcb, 0xaf, 0xc3, 0xf0, 0x81,
  0xb7, 0xfb, 0x00, 0xdc, 0xa1, 0xee, 0xe4, 0xf8, 0xd7, 0x39, 0xe7, 0x33,
  0xec, 0x33, 0xad, 0x27, 0xa9, 0x13, 0xe7, 0xde, 0x9b, 0x0b, 0xe0, 0x15,
  0x28, 0xdd, 0xd5, 0xea, 0x84, 0xf9, 0xdc, 0xe8, 0xdf, 0xe6, 0xf0, 0x20,
  0x0b, 0xe5, 0xe6, 0xde, 0x11, 0x28, 0xfe, 0xfb, 0xed, 0xed, 0xda, 0x01,
  0xff, 0xe9, 0x21, 0xef, 0x47, 0xf4, 0x05, 0x4b, 0xf4, 0xe5, 0x34, 0x20,
  0x7f, 0xa0, 0xfd, 0x24, 0x1d, 0xf5, 0x00, 0x0d, 0x1f, 0xcd, 0x1b, 0xb7,
  0xec, 0xd1, 0x25, 0x31, 0x0a, 0xbe, 0xee, 0xe4, 0x0a, 0x35, 0xc8, 0x00,
  0x5e, 0xe3, 0x55, 0x61, 0x9f, 0xd3, 0xda, 0xfe, 0x2d, 0xa8, 0x19, 0xd5,
  0x02, 0xe6, 0xfa, 0xd7, 0xe5, 0x00, 0x01, 0x0c, 0x21, 0x24, 0xed, 0xe8,
  0xfe, 0x23, 0xdd, 0x13, 0x06, 0xd2, 0xf6, 0xe7, 0xe0, 0x0e, 0x04, 0xf6,
  0xfe, 0x7f, 0xfb, 0x04, 0x10, 0xf1, 0x14, 0x39, 0xe6, 0xfc, 0xe7, 0x0b,
  0xc9, 0x24, 0xfa, 0xdf, 0x04, 0x4a, 0x25, 0xfc, 0xfb, 0x25, 0x20, 0x43,
  0xfb, 0xf6, 0xdb, 0xdd, 0x0f, 0xea, 0x32, 0x13, 0x06, 0xe4, 0x0f, 0x0c,
  0x27, 0xda, 0xe7, 0x2e, 0x04, 0xf1, 0xf1, 0xe6, 0x1f, 0xe6, 0x34, 0x03,
  0xfd, 0xfb, 0x0b, 0x07, 0x19, 0xfb, 0x05, 0x45, 0x11, 0xfb, 0xf1, 0xe5,
  0xfe, 0xe5, 0x46, 0x19, 0xdd, 0xe7, 0x09, 0xef, 0x16, 0xdc, 0xf5, 0x18,
  0xf0, 0xe2, 0xe6, 0xdd, 0x1a, 0xda, 0x20, 0x17, 0x14, 0x32, 0x09, 0xf7,
  0x0a, 0xfb, 0xf7, 0x14, 0xf8, 0xc7, 0xe7, 0xd6, 0x1a, 0x00, 0x2d, 0x14,
  0x08, 0x36, 0x13, 0xf7, 0x18, 0x40, 0xf2, 0x38, 0xec, 0xe4, 0xda, 0xd2,
  0x13, 0x03, 0x27, 0x08, 0x31, 0x5c, 0x2d, 0xfb, 0x20, 0xf7, 0xf1, 0x15,
  0xcf, 0x16, 0x0c, 0x10, 0x0d, 0xf3, 0x52, 0xf2, 0xf4, 0xfc, 0x1c, 0x2f,
  0x1d, 0x0b, 0x04, 0x28, 0xe0, 0x31, 0xea, 0x17, 0x04, 0xe6, 0x7f, 0x27,
  0x0e, 0x34, 0x29, 0x3d, 0x3d, 0x15, 0x12, 0x1e, 0xdf, 0x36, 0xed, 0x12,
  0x03, 0x06, 0x4c, 0xff, 0xf2, 0xe3, 0x3d, 0x21, 0x29, 0xe7, 0xfd, 0x27,
  0xff, 0xdd, 0x06, 0xef, 0xe2, 0xe7, 0x18, 0xe7, 0x08, 0x10, 0xeb, 0xfc,
  0xfa, 0x21, 0xe2, 0x15, 0x15, 0xfb, 0xfa, 0xf2, 0xde, 0xf7, 0x01, 0xef,
  0x06, 0x33, 0xf6, 0xf4, 0xea, 0xf8, 0x05, 0x3e, 0xed, 0xf3, 0x08, 0xfb,
  0xf5, 0x28, 0x05, 0xf2, 0x11, 0x11, 0xf3, 0xe9, 0xf4, 0x19, 0x0a, 0x1d,
  0xf7, 0xec, 0x06, 0x07, 0x0e, 0xf8, 0x12, 0xf6, 0xfc, 0xf5, 0xec, 0x1f,
  0x27, 0xe4, 0xfd, 0xf6, 0xdd, 0xec, 0x0b, 0x00, 0xf5, 0x07, 0xfd, 0x0b,
  0xf1, 0xfc, 0xfc, 0x20, 0x21, 0xe4, 0xe7, 0xf2, 0xcf, 0xf1, 0xf7, 0x0a,
  0xe8, 0x08, 0x1e, 0x0c, 0xe5, 0xf0, 0xff, 0xf6, 0x04, 0xe3, 0xdc, 0x0c,
  0xe9, 0x81, 0x16, 0x1d, 0xd6, 0xe6, 0xc9, 0x31, 0xfd, 0xa6, 0xf7, 0x47,
  0xec, 0xd2, 0xe2, 0x02, 0xf6, 0xad, 0xac, 0xd6, 0x2d, 0xc7, 0xe2, 0x09,
  0xdf, 0xd6, 0x01, 0x0b, 0xf8, 0xbe, 0xf5, 0x00, 0xcf, 0xb7, 0x0b, 0xef,
  0x49, 0xcf, 0xc5, 0xd7, 0xe7, 0xb7, 0xfd, 0x1f, 0xd9, 0xd0, 0xc6, 0xde,
  0x0c, 0x5b, 0xf4, 0xc4, 0x31, 0xc7, 0x62, 0x01, 0xd9, 0xf8, 0xe9, 0xc4,
  0x3a, 0x64, 0x5a, 0xb6, 0x18, 0x47, 0x2c, 0xfa, 0xe0, 0xd5, 0xe9, 0x12,
  0x29, 0x2a, 0xbc, 0x1c, 0x16, 0x44, 0x0f, 0xc9, 0xeb, 0x45, 0x5d, 0x38,
  0x13, 0x1a, 0x2f, 0xc9, 0x3d, 0xe4, 0xc8, 0xfd, 0x03, 0x27, 0x0b, 0xf2,
  0xbe, 0xbb, 0xa7, 0xe4, 0xfc, 0xec, 0xd3, 0x38, 0x09, 0x51, 0x0c, 0x25,
  0x2e, 0x2c, 0xf1, 0xe1, 0xc5, 0xd0, 0xa5, 0x0c, 0xdc, 0xab, 0xd1, 0x11,
  0x3f, 0xdd, 0x63, 0xfd, 0x47, 0x00, 0xac, 0xf7, 0xcf, 0xc1, 0xb4, 0xc3,
  0xe8, 0x23, 0xdc, 0xde, 0x3d, 0xdc, 0x21, 0xda, 0x44, 0xe9, 0xf4, 0xcb,
  0x8a, 0xf4, 0xff, 0xff, 0x04, 0x00, 0x00, 0x00, 0x80, 0x00, 0x00, 0x00,
  0x57, 0xe6, 0xff, 0xff, 0x78, 0xc1, 0xff, 0xff, 0xfc, 0xdf, 0xff, 0xff,
  0x99, 0xcb, 0xff, 0xff, 0xc8, 0x3e, 0x00, 0x00, 0x92, 0x26, 0x00, 0x00,
  0xb2, 0x70, 0x00, 0x00, 0x6b, 0x5c, 0x00, 0x00, 0xd8, 0x57, 0x00, 0x00,
  0x8f, 0xc4, 0xff, 0xff, 0x1d, 0x97, 0x00, 0x00, 0x57, 0xaa, 0xff, 0xff,
  0x61, 0xe5, 0xff, 0xff, 0x06, 0x8a, 0x00, 0x00, 0x1f, 0x06, 0x00, 0x00,
  0x88, 0x27, 0x00, 0x00, 0x7e, 0x15, 0x00, 0x00, 0x33, 0x5e, 0x00, 0x00,
  0xc9, 0x61, 0x00, 0x00, 0xae, 0x18, 0x00, 0x00, 0x3a, 0xf3, 0xff, 0xff,
  0xff, 0x89, 0xff, 0xff, 0x70, 0xb6, 0xff, 0xff, 0xc0, 0xcd, 0xff, 0xff,
  0x8d, 0x40, 0x00, 0x00, 0xbf, 0x0e, 0x00, 0x00, 0x54, 0x18, 0x00, 0x00,
  0x3b, 0x2d, 0x00, 0x00, 0x20, 0x78, 0x00, 0x00, 0xd3, 0xe2, 0xff, 0xff,
  0x3e, 0xda, 0xff, 0xff, 0x00, 0x46, 0x00, 0x00, 0x16, 0xf5, 0xff, 0xff,
  0x04, 0x00, 0x00, 0x00, 0x00, 0x08, 0x00, 0x00, 0x14, 0xe3, 0xe4, 0x22,
  0xf0, 0xf8, 0x07, 0xf3, 0xf3, 0xd4, 0xd5, 0xf0, 0xaf, 0x1b, 0xb0, 0xf8,
  0xfa, 0xe7, 0xe9, 0xe5, 0xeb, 0xf5, 0x1f, 0x40, 0xad, 0xf7, 0xee, 0xf1,
  0xf6, 0x81, 0x7c, 0xc0, 0x31, 0x4e, 0x69, 0xc8, 0x33, 0x14, 0x54, 0x18,
  0x82, 0x61, 0x69, 0xfb, 0xb7, 0x1f, 0xf0, 0xef, 0xfd, 0x2b, 0x84, 0xc1,
  0x84, 0xe3, 0x01, 0x8c, 0x78, 0x81, 0xdb, 0xdf, 0xd3, 0xf5, 0x4b, 0x10,
  0x40, 0x89, 0xb6, 0xc9, 0xc6, 0x1a, 0x1a, 0xb7, 0x4b, 0x36, 0x21, 0xf8,
  0x94, 0x2b, 0x81, 0x1e, 0x39, 0x42, 0x35, 0x4f, 0x03, 0xd5, 0xad, 0x9b,
  0x22, 0xc0, 0xbe, 0x3d, 0x4f, 0xf7, 0x9b, 0xe4, 0x17, 0x07, 0x37, 0xca,
  0x00, 0xee, 0x82, 0x0a, 0x7f, 0x6c, 0x49, 0x76, 0xef, 0xdd, 0x57, 0x20,
  0x9f, 0x21, 0x60, 0xd2, 0x8e, 0xaa, 0x51, 0xce, 0x25, 0xde, 0x4d, 0xc6,
  0xc1, 0xce, 0x3e, 0xd2, 0x62, 0x29, 0x56, 0xab, 0x47, 0xe6, 0x8b, 0xf8,
  0xe5, 0x28, 0xcf, 0x3c, 0x98, 0x3a, 0xfb, 0x0d, 0x92, 0x0b, 0x59, 0xa4,
  0xc5, 0x35, 0x68, 0xfe, 0x49, 0x19, 0xc9, 0xfb, 0x81, 0xef, 0x6c, 0x4a,
  0xd3, 0xbd, 0xbe, 0x9b, 0xac, 0x97, 0xae, 0xb0, 0xb9, 0xb4, 0xa8, 0xb9,
  0x9a, 0xb0, 0xd0, 0xcd, 0x99, 0xb3, 0xba, 0x99, 0x81, 0xb0, 0xc9, 0x97,
  0xa8, 0x8c, 0x81, 0x8b, 0xa6, 0xdd, 0xd9, 0x9f, 0x9f, 0xc5, 0xb9, 0x14,
  0x2a, 0x29, 0x38, 0xa3, 0x25, 0x21, 0x1d, 0xfa, 0x24, 0x72, 0xfa, 0x9d,
  0xca, 0x2a, 0x23, 0x2b, 0x5a, 0x0b, 0xac, 0x3a, 0x3a, 0xca, 0x4d, 0xcc,
  0x7f, 0xd1, 0xaf, 0xa9, 0x21, 0xd8, 0xdc, 0x13, 0x24, 0x23, 0x4d, 0xff,
  0x28, 0x48, 0xf4, 0x9f, 0x0a, 0x17, 0x12, 0xee, 0x04, 0x38, 0xf4, 0x2c,
  0xd2, 0xf4, 0xd8, 0xb3, 0x31, 0x3c, 0xf5, 0x1d, 0x08, 0xbd, 0x81, 0xe6,
  0xc6, 0x81, 0xf6, 0xff, 0xac, 0xcb, 0xce, 0xda, 0xc3, 0xd1, 0xcf, 0x4a,
  0xde, 0xc6, 0xcf, 0xc7, 0xd3, 0xc8, 0x2e, 0xce, 0xe0, 0xbf, 0x04, 0x93,
  0xaf, 0xd8, 0xe1, 0xdf, 0xcf, 0xc7, 0xd0, 0xd0, 0x04, 0xff, 0xff, 0xef,
  0xef, 0xde, 0xbb, 0x97, 0x08, 0xf6, 0xf6, 0x42, 0x81, 0xf2, 0xaf, 0x00,
  0x49, 0xc4, 0xda, 0xf2, 0xf4, 0xc2, 0xfb, 0x29, 0xfb, 0x99, 0xd8, 0x55,
  0xe7, 0xfe, 0xf9, 0xf5, 0x14, 0x02, 0xa3, 0x33, 0x7f, 0xad, 0xc9, 0x47,
  0x3c, 0xbe, 0x18, 0x53, 0xf3, 0xc4, 0x2f, 0xe1, 0xda, 0xf7, 0xed, 0xfc,
  0x72, 0xc6, 0xe9, 0xe9, 0xed, 0x25, 0x2b, 0x42, 0x17, 0x47, 0xd3, 0xe5,
  0xd6, 0xe4, 0xc9, 0x6a, 0x3d, 0x5c, 0x4b, 0xcd, 0xfd, 0x92, 0xf5, 0xd2,
  0x07, 0x6c, 0x16, 0x07, 0x4a, 0xcf, 0x48, 0x56, 0x13, 0x04, 0x95, 0x7f,
  0x14, 0xc4, 0xd9, 0xcf, 0x1d, 0x02, 0x96, 0xcf, 0x52, 0xc4, 0xb6, 0x81,
  0x97, 0x0a, 0x50, 0x18, 0xf1, 0x1c, 0xce, 0xc0, 0xe8, 0x4d, 0xd9, 0xdd,
  0x45, 0xf2, 0xb8, 0x29, 0xda, 0x15, 0x53, 0xf5, 0x48, 0x43, 0xa7, 0x56,
  0xf8, 0x0e, 0xfb, 0x37, 0x46, 0xc4, 0x34, 0x7f, 0x6a, 0xac, 0x62, 0xed,
  0x71, 0x88, 0xcb, 0x52, 0xbe, 0x19, 0x44, 0xcc, 0xa1, 0xcd, 0x66, 0x2a,
  0x04, 0x56, 0xbc, 0x50, 0xb1, 0xbe, 0x0d, 0x0d, 0xe4, 0xb1, 0x3e, 0xa5,
  0x17, 0xc8, 0x39, 0x44, 0x3a, 0xf2, 0xce, 0x1f, 0x4e, 0xfa, 0x41, 0xdc,
  0x11, 0xae, 0x42, 0xd2, 0xe2, 0x12, 0x7f, 0xb0, 0xd3, 0xb7, 0x19, 0xb2,
  0xc3, 0xb6, 0x4d, 0xc1, 0x30, 0x4c, 0x43, 0xcb, 0x04, 0xe0, 0x33, 0x10,
  0x12, 0xcc, 0xca, 0xc8, 0x31, 0x39, 0x3f, 0x2c, 0x1d, 0x2c, 0xb6, 0xfd,
  0x5f, 0xff, 0xdd, 0xcc, 0xbe, 0xf1, 0x5d, 0xb5, 0x38, 0x2d, 0x81, 0x23,
  0x23, 0xe7, 0xb0, 0x5a, 0xa0, 0x2c, 0xa4, 0xb3, 0x22, 0xd5, 0x3a, 0x81,
  0xa0, 0x46, 0xd3, 0x35, 0x51, 0xd0, 0x1e, 0x1d, 0x32, 0xc0, 0x0d, 0x9e,
  0x3e, 0x06, 0xd5, 0xa9, 0x2c, 0x56, 0x19, 0x15, 0xea, 0x09, 0x1a, 0x96,
  0xb4, 0x18, 0x04, 0x28, 0xb9, 0x70, 0x63, 0x98, 0xed, 0xf5, 0x3c, 0x38,
  0x02, 0xea, 0x0b, 0x16, 0xfd, 0xe4, 0x81, 0x55, 0xd3, 0x1c, 0x55, 0xc2,
  0x59, 0x07, 0x98, 0x00, 0x35, 0xeb, 0x07, 0x21, 0xb8, 0x09, 0xc4, 0x77,
  0x42, 0x29, 0xff, 0x6d, 0x7f, 0x85, 0xb6, 0x61, 0x1c, 0x28, 0x4a, 0x40,
  0x88, 0x05, 0xd4, 0xb1, 0x4d, 0x39, 0x20, 0x1a, 0x16, 0x36, 0x06, 0x96,
  0x31, 0xb5, 0xaa, 0xe0, 0x00, 0x00, 0x00, 0x00, 0x00, 0x00, 0x00, 0x00,
  0x00, 0x00, 0x00, 0x00, 0x00, 0x00, 0x00, 0x00, 0x00, 0x00, 0x00, 0x00,
  0x00, 0x00, 0x00, 0x00, 0x00, 0x00, 0x00, 0x00, 0x00, 0x00, 0x00, 0x00,
  0x18, 0xd0, 0xae, 0x07, 0xcf, 0xf1, 0xfd, 0x52, 0x60, 0x81, 0xdf, 0x38,
  0xf9, 0x09, 0x50, 0x40, 0xc2, 0x57, 0x44, 0x49, 0x36, 0x4c, 0xeb, 0x4f,
  0xd9, 0xc0, 0x6e, 0xb6, 0x10, 0xfb, 0x01, 0x86, 0x11, 0x03, 0x2a, 0xde,
  0xa4, 0x16, 0x2f, 0xbb, 0xc0, 0xf6, 0x06, 0xb7, 0xdf, 0xc9, 0x90, 0x7f,
  0xbb, 0xda, 0xb4, 0x37, 0x82, 0x31, 0x62, 0x1d, 0x4d, 0x99, 0xe6, 0x54,
  0x52, 0x60, 0x5a, 0xdc, 0x00, 0x00, 0x00, 0x00, 0x00, 0x00, 0x00, 0x00,
  0x00, 0x00, 0x00, 0x00, 0x00, 0x00, 0x00, 0x00, 0x00, 0x00, 0x00, 0x00,
  0x00, 0x00, 0x00, 0x00, 0x00, 0x00, 0x00, 0x00, 0x00, 0x00, 0x00, 0x00,
  0xe2, 0xe6, 0x66, 0x5e, 0xdb, 0xfd, 0x30, 0x14, 0x05, 0xd1, 0xa6, 0xff,
  0x45, 0x4b, 0x37, 0xc1, 0x8e, 0x87, 0xda, 0x0f, 0xcc, 0x45, 0x51, 0xb6,
  0x9f, 0x81, 0x02, 0x6c, 0x07, 0x99, 0xae, 0x34, 0x09, 0xdb, 0x21, 0xba,
  0x2f, 0x41, 0xac, 0x2a, 0xf5, 0x20, 0xc3, 0x49, 0x36, 0xc3, 0x05, 0x8e,
  0x81, 0x55, 0x3d, 0x8f, 0x34, 0x4f, 0x04, 0x67, 0xe5, 0x41, 0x53, 0x09,
  0x35, 0xec, 0xf4, 0x37, 0x0a, 0xb6, 0x42, 0xc6, 0x7f, 0x0d, 0xff, 0x18,
  0x4e, 0xb2, 0xd1, 0x53, 0x16, 0xf6, 0x41, 0x28, 0x8b, 0xed, 0x3c, 0xd3,
  0x53, 0x4e, 0xf1, 0x41, 0x93, 0x31, 0x05, 0xc4, 0xf6, 0xf6, 0xcc, 0xfa,
  0xc4, 0x81, 0xcd, 0xc4, 0xcc, 0x73, 0x1f, 0xaf, 0xb1, 0xce, 0x61, 0xfb,
  0x1b, 0x55, 0x21, 0xd2, 0xe7, 0x34, 0x00, 0x4f, 0x08, 0x65, 0xfa, 0xef,
  0x3c, 0x22, 0x5c, 0xbf, 0x58, 0xe2, 0x13, 0x14, 0xd4, 0xdf, 0xc9, 0x84,
  0x20, 0x1b, 0x1d, 0x1b, 0x3c, 0x08, 0x55, 0x42, 0xa8, 0x4c, 0x81, 0xe2,
  0xdf, 0x16, 0xa5, 0xd3, 0xa3, 0xb8, 0x5a, 0xc3, 0x6b, 0x07, 0xae, 0x5b,
  0x36, 0x40, 0xae, 0x2c, 0xda, 0x6e, 0x2f, 0x2f, 0xcf, 0x98, 0x3b, 0xb4,
  0x03, 0xc5, 0x6b, 0xdd, 0x1e, 0x19, 0x81, 0x4c, 0x25, 0xa3, 0x83, 0x50,
  0xb4, 0xff, 0x54, 0x97, 0x3d, 0xc2, 0xd6, 0x15, 0xda, 0x2f, 0x1e, 0x4f,
  0x72, 0x2a, 0x6c, 0xd2, 0xb1, 0x9e, 0x11, 0x86, 0x29, 0x19, 0xbd, 0x00,
  0x81, 0x5b, 0x8d, 0xd7, 0xdc, 0x1f, 0xc8, 0x9f, 0xe6, 0x04, 0xe2, 0xdf,
  0xbd, 0x0e, 0x62, 0xc0, 0xbc, 0x6b, 0xb8, 0xb2, 0x44, 0x81, 0xf3, 0x20,
  0x19, 0x2b, 0x3a, 0xe6, 0x12, 0x05, 0x1b, 0xec, 0xaf, 0xc7, 0xa5, 0xa0,
  0x2a, 0x51, 0xe6, 0xe4, 0x45, 0x4e, 0xf7, 0x47, 0xc6, 0x35, 0x0a, 0x35,
  0x0c, 0xbf, 0x27, 0x40, 0xc8, 0x31, 0xc0, 0x7f, 0x5b, 0xe2, 0x69, 0xeb,
  0x30, 0xef, 0xe1, 0xd0, 0x70, 0x36, 0xe8, 0xb5, 0xa4, 0x0f, 0xd8, 0xb2,
  0x55, 0x78, 0xb8, 0x16, 0xb5, 0xbd, 0x4b, 0xa1, 0x3c, 0x4c, 0xdc, 0x32,
  0xc3, 0xef, 0xb1, 0x16, 0x3f, 0x27, 0x42, 0x54, 0x7f, 0xb5, 0x25, 0x40,
  0xe1, 0x25, 0x35, 0x3c, 0xc7, 0xe4, 0x46, 0xa8, 0x33, 0x04, 0x35, 0x21,
  0xde, 0xde, 0x15, 0xa9, 0xb1, 0xd0, 0x1c, 0xad, 0x7f, 0xfa, 0x4b, 0xe2,
  0xba, 0x94, 0x5e, 0x77, 0x34, 0xde, 0x58, 0xb2, 0x32, 0xaa, 0xd4, 0x96,
  0xe5, 0xaa, 0x8d, 0x2a, 0x2b, 0x40, 0xa3, 0x84, 0xfb, 0xc0, 0x25, 0x43,
  0x26, 0xe5, 0x1a, 0xbd, 0xd1, 0x74, 0x7f, 0xc1, 0x25, 0x0b, 0x22, 0xe8,
  0x12, 0xd9, 0xb0, 0x3c, 0x2c, 0xcd, 0xcc, 0x7c, 0x09, 0x43, 0x2d, 0xe9,
  0x2a, 0xb9, 0x19, 0xb0, 0x1e, 0x9a, 0xa3, 0xdc, 0xf8, 0x75, 0x61, 0xba,
  0x92, 0xad, 0xa1, 0x49, 0x4f, 0x39, 0x7f, 0xbd, 0xdc, 0xc1, 0x29, 0xea,
  0x42, 0x66, 0xc6, 0xc4, 0x11, 0x73, 0xc5, 0x64, 0x76, 0x70, 0xbd, 0x37,
  0xe4, 0x16, 0x62, 0xb7, 0x5e, 0xa8, 0xa7, 0x08, 0xba, 0xee, 0x91, 0x7e,
  0x20, 0x3c, 0x7f, 0xe0, 0x9f, 0x98, 0x67, 0xab, 0x45, 0x3b, 0x95, 0x92,
  0xef, 0x24, 0xbe, 0x56, 0x39, 0x5b, 0xf3, 0x0d, 0xda, 0xe7, 0x72, 0x0e,
  0x2b, 0x51, 0xd5, 0xe1, 0x36, 0xec, 0x7c, 0x81, 0xb7, 0xdd, 0x1c, 0xd5,
  0x53, 0xff, 0xaa, 0x30, 0xf0, 0xfc, 0x53, 0x6a, 0x3e, 0x37, 0x20, 0xa6,
  0xe8, 0x9b, 0x4a, 0xcc, 0x67, 0xa9, 0x0a, 0xb8, 0x1c, 0x51, 0x39, 0xd7,
  0x58, 0xbe, 0x02, 0x9a, 0x13, 0x5d, 0x5d, 0xd5, 0xf8, 0x6a, 0x59, 0xf0,
  0xf8, 0x43, 0xd1, 0x14, 0xc8, 0xb3, 0x37, 0xd7, 0x96, 0x95, 0xd1, 0xc8,
  0x59, 0x14, 0x81, 0x40, 0xd8, 0x2e, 0x03, 0x11, 0x87, 0x77, 0xfe, 0xa1,
  0x98, 0x65, 0x27, 0x65, 0x84, 0x81, 0x8e, 0xac, 0x67, 0xf5, 0xd0, 0x4e,
  0x61, 0x06, 0xd4, 0xe5, 0xc4, 0x6c, 0xd9, 0xd6, 0x3b, 0x24, 0xba, 0x87,
  0xf7, 0xff, 0x47, 0x93, 0x00, 0x00, 0x00, 0x00, 0x00, 0x00, 0x00, 0x00,
  0x00, 0x00, 0x00, 0x00, 0x00, 0x00, 0x00, 0x00, 0x00, 0x00, 0x00, 0x00,
  0x00, 0x00, 0x00, 0x00, 0x00, 0x00, 0x00, 0x00, 0x00, 0x00, 0x00, 0x00,
  0xa6, 0xfd, 0x14, 0x7f, 0x7c, 0xc1, 0x15, 0x0e, 0x05, 0x9f, 0xd1, 0x4f,
  0x23, 0x0c, 0x12, 0x1d, 0xef, 0x1b, 0x38, 0xd4, 0x2b, 0x34, 0xd3, 0x2d,
  0xc8, 0x0d, 0xe1, 0xa3, 0x46, 0x64, 0x1e, 0xf2, 0x61, 0x0e, 0xea, 0xdb,
  0xde, 0xc3, 0x68, 0xc3, 0xc1, 0x2e, 0x37, 0x0c, 0x8b, 0x0a, 0xa0, 0x6e,
  0x43, 0xd3, 0xec, 0x24, 0xbd, 0xcd, 0x2f, 0xc0, 0x7f, 0xd7, 0xfa, 0xf7,
  0xe6, 0x22, 0xd5, 0x7c, 0x16, 0xfd, 0xc3, 0x64, 0x2e, 0x53, 0x0c, 0xd1,
  0xe7, 0x03, 0x2b, 0x00, 0x0d, 0xe5, 0xaf, 0xb9, 0xda, 0x4e, 0x8d, 0x18,
  0x7d, 0x4e, 0x81, 0x59, 0xb6, 0xf6, 0x5b, 0x40, 0xd9, 0xc4, 0xe7, 0x37,
  0x3b, 0x1b, 0xdb, 0x28, 0x60, 0xe1, 0x18, 0x5a, 0x0c, 0x81, 0xf6, 0x44,
  0xd9, 0x22, 0x27, 0xc0, 0x2b, 0x32, 0x4c, 0x39, 0x61, 0xdf, 0x9e, 0x3b,
  0xfa, 0x0f, 0x6b, 0x9d, 0x8b, 0x2e, 0x28, 0x81, 0x28, 0xfa, 0x55, 0x03,
  0x81, 0xe5, 0xc7, 0xe2, 0xe3, 0xec, 0xe0, 0x44, 0xd0, 0x2c, 0xc6, 0x32,
  0xac, 0xe3, 0xc7, 0xe8, 0xe7, 0xf5, 0xba, 0xa7, 0x57, 0xe5, 0xdc, 0x9b,
  0xc8, 0xf5, 0x9b, 0xe6, 0xf9, 0x96, 0x32, 0x06, 0x9f, 0xef, 0x56, 0x18,
  0xf5, 0xbd, 0x1a, 0xf3, 0x07, 0xaa, 0x3e, 0x26, 0x04, 0xb7, 0x81, 0x13,
  0x41, 0x2f, 0xe8, 0x44, 0xe5, 0x4a, 0x56, 0xcc, 0x51, 0xb1, 0x03, 0x39,
  0xc9, 0x3b, 0x83, 0xe4, 0x2a, 0x7d, 0x56, 0x20, 0x9b, 0xf2, 0x27, 0x42,
  0xf7, 0x28, 0xac, 0xe9, 0x61, 0x6a, 0x9a, 0x03, 0x67, 0x1c, 0x8f, 0x7f,
  0x1b, 0xef, 0x37, 0xb7, 0x0b, 0xc1, 0x9a, 0xfe, 0xc6, 0x66, 0x60, 0x7a,
  0x11, 0xe6, 0xc7, 0xc6, 0x49, 0xb0, 0xc3, 0x1e, 0x7f, 0xc4, 0xda, 0x30,
  0xbe, 0x35, 0xc1, 0xb6, 0x20, 0x72, 0xfd, 0x6b, 0x55, 0x00, 0x50, 0x2d,
  0x39, 0x19, 0xfa, 0xca, 0x00, 0x00, 0x00, 0x00, 0x00, 0x00, 0x00, 0x00,
  0x00, 0x00, 0x00, 0x00, 0x00, 0x00, 0x00, 0x00, 0x00, 0x00, 0x00, 0x00,
  0x00, 0x00, 0x00, 0x00, 0x00, 0x00, 0x00, 0x00, 0x00, 0x00, 0x00, 0x00,
  0x65, 0x63, 0x02, 0xd5, 0xbd, 0xba, 0x28, 0x33, 0xbd, 0x13, 0xba, 0x72,
  0xa7, 0x2e, 0x52, 0x6c, 0x81, 0xea, 0x03, 0xca, 0xa5, 0x3c, 0xc8, 0x37,
  0x49, 0x91, 0x4a, 0x37, 0xa7, 0x21, 0x1c, 0x42, 0x2a, 0xd5, 0x90, 0xa7,
  0x3d, 0x45, 0xe3, 0x08, 0xc5, 0x39, 0x12, 0x27, 0xc0, 0x44, 0xca, 0x81,
  0x2b, 0x4c, 0x42, 0x16, 0xa1, 0xf9, 0xf8, 0x04, 0x10, 0x21, 0xe3, 0x30,
  0x69, 0x98, 0x8f, 0xf7, 0x81, 0x29, 0x51, 0x8a, 0xfd, 0x55, 0xbb, 0x2f,
  0xc0, 0x55, 0x3a, 0xe3, 0x4e, 0xc1, 0x20, 0x9e, 0x97, 0x07, 0x32, 0x98,
  0x96, 0xb3, 0x32, 0xdc, 0x1c, 0xfd, 0x53, 0x09, 0x60, 0x9f, 0xba, 0xa1,
  0x56, 0xff, 0x7b, 0xc4, 0xc0, 0xd4, 0xb0, 0x05, 0x01, 0x27, 0xcf, 0xd2,
  0x03, 0x34, 0xb8, 0x7c, 0x0f, 0xd5, 0xea, 0xef, 0x81, 0x16, 0x5e, 0x3e,
  0xc9, 0x0f, 0x09, 0x34, 0xdb, 0x72, 0x5f, 0xf1, 0x37, 0x31, 0x4d, 0x02,
  0xc3, 0x13, 0xb4, 0x07, 0x7a, 0x73, 0x13, 0x7f, 0xe2, 0xcb, 0x0e, 0x44,
  0xde, 0xa7, 0x75, 0xea, 0xae, 0xba, 0x25, 0xd1, 0xff, 0xcb, 0x22, 0xe0,
  0xbf, 0x3a, 0xfd, 0xd6, 0x00, 0x00, 0x00, 0x00, 0x00, 0x00, 0x00, 0x00,
  0x00, 0x00, 0x00, 0x00, 0x00, 0x00, 0x00, 0x00, 0x00, 0x00, 0x00, 0x00,
  0x00, 0x00, 0x00, 0x00, 0x00, 0x00, 0x00, 0x00, 0x00, 0x00, 0x00, 0x00,
  0x48, 0x41, 0x74, 0x50, 0x39, 0x2c, 0x60, 0xa1, 0x81, 0xe4, 0x32, 0xb0,
  0xde, 0xff, 0xb6, 0x74, 0x8b, 0xc4, 0xb4, 0x55, 0x51, 0x6e, 0x3c, 0x2d,
  0xa4, 0xcf, 0x1f, 0xad, 0x64, 0x0b, 0xc9, 0xb2, 0x25, 0x67, 0x40, 0xf9,
  0x0b, 0xdb, 0x50, 0xdb, 0xd5, 0xc4, 0x3d, 0x3c, 0xdb, 0xe8, 0x50, 0x76,
  0xb0, 0xbc, 0xce, 0x8e, 0x84, 0xce, 0x04, 0x36, 0x16, 0xa0, 0xe1, 0x18,
  0xf4, 0x5f, 0x7f, 0x3b, 0xad, 0xa6, 0x0d, 0xe8, 0xfa, 0x4c, 0x26, 0x10,
  0x81, 0xe5, 0xa3, 0x02, 0x30, 0x43, 0x02, 0x0e, 0x3a, 0x52, 0x06, 0x5b,
  0xd2, 0x7d, 0xeb, 0x6d, 0xd7, 0x35, 0x6b, 0xca, 0xb9, 0xc2, 0xb9, 0x22,
  0x04, 0x55, 0x0f, 0x3d, 0x04, 0xbb, 0xc4, 0x50, 0x3d, 0x58, 0x3d, 0x42,
  0xbd, 0xc9, 0xde, 0x28, 0xb8, 0xbb, 0x26, 0x98, 0xfb, 0x42, 0x21, 0xb3,
  0x1a, 0xd7, 0xb9, 0x20, 0xc2, 0x7f, 0xfc, 0xf9, 0xe0, 0xa3, 0x1c, 0x2d,
  0xde, 0xff, 0xc6, 0xbc, 0xcd, 0x35, 0x6d, 0xfd, 0x85, 0x69, 0x81, 0xb0,
  0x02, 0x30, 0xd3, 0x4b, 0x2c, 0x92, 0x71, 0xe0, 0x6b, 0x1a, 0x9e, 0x5f,
  0x61, 0x20, 0xc8, 0x51, 0x98, 0x81, 0xed, 0x24, 0x10, 0xd5, 0xf8, 0xba,
  0xe4, 0xe0, 0x16, 0x5b, 0x2d, 0x6b, 0x58, 0x09, 0x35, 0x23, 0xe7, 0x55,
  0x13, 0xfa, 0x94, 0x69, 0xd4, 0x4f, 0x0c, 0x17, 0xab, 0x4f, 0x41, 0xa0,
  0x10, 0xa3, 0xb3, 0x92, 0xf4, 0xea, 0x5e, 0x30, 0x04, 0x2a, 0x18, 0x36,
  0xd9, 0x23, 0x99, 0x95, 0x4b, 0xe0, 0x1d, 0x31, 0xbf, 0x81, 0xd2, 0x12,
  0xea, 0xfe, 0xe8, 0xf6, 0x6c, 0xd7, 0xe9, 0x43, 0x7f, 0xf1, 0xd1, 0x27,
  0xf4, 0xa6, 0xbd, 0x4e, 0x76, 0x2a, 0xc1, 0x51, 0x95, 0x28, 0xb1, 0xc9,
  0x31, 0xd0, 0x1a, 0xfb, 0xab, 0x04, 0x59, 0x27, 0x56, 0xf3, 0xd4, 0xf7,
  0x97, 0x71, 0x19, 0x29, 0x22, 0xfd, 0xff, 0xff, 0x04, 0x00, 0x00, 0x00,
  0x00, 0x01, 0x00, 0x00, 0x12, 0xf3, 0xff, 0xff, 0xa7, 0xfd, 0xff, 0xff,
  0x46, 0x01, 0x00, 0x00, 0xbf, 0x04, 0x00, 0x00, 0x6d, 0xfd, 0xff, 0xff,
  0xed, 0xda, 0xff, 0xff, 0x87, 0x00, 0x00, 0x00, 0xbc, 0xfd, 0xff, 0xff,
  0xa0, 0xe4, 0xff, 0xff, 0xa6, 0xfa, 0xff, 0xff, 0x5f, 0xfd, 0xff, 0xff,
  0x59, 0xfb, 0xff, 0xff, 0x9c, 0x02, 0x00, 0x00, 0x1a, 0x02, 0x00, 0x00,
  0xa2, 0x02, 0x00, 0x00, 0x7f, 0xff, 0xff, 0xff, 0xf2, 0xfa, 0xff, 0xff,
  0x1b, 0xfe, 0xff, 0xff, 0xe8, 0xfe, 0xff, 0xff, 0x00, 0x00, 0x00, 0x00,
  0xd4, 0xfc, 0xff, 0xff, 0x73, 0xfc, 0xff, 0xff, 0x00, 0x00, 0x00, 0x00,
  0x21, 0xfd, 0xff, 0xff, 0xad, 0xf7, 0xff, 0xff, 0xfc, 0x00, 0x00, 0x00,
  0x69, 0xfa, 0xff, 0xff, 0x99, 0x01, 0x00, 0x00, 0xb8, 0x01, 0x00, 0x00,
  0x56, 0xf9, 0xff, 0xff, 0x6d, 0xfc, 0xff, 0xff, 0x4a, 0xff, 0xff, 0xff,
  0xcf, 0xff, 0xff, 0xff, 0x47, 0xfe, 0xff, 0xff, 0xa5, 0xfd, 0xff, 0xff,
  0xe2, 0xfd, 0xff, 0xff, 0xd2, 0x00, 0x00, 0x00, 0x6f, 0x00, 0x00, 0x00,
  0xea, 0x00, 0x00, 0x00, 0xa1, 0xfc, 0xff, 0xff, 0x00, 0x00, 0x00, 0x00,
  0x97, 0xff, 0xff, 0xff, 0xf9, 0x05, 0x00, 0x00, 0xf9, 0xfb, 0xff, 0xff,
  0x19, 0xf7, 0xff, 0xff, 0xa3, 0xf3, 0xff, 0xff, 0xa9, 0xff, 0xff, 0xff,
  0x7c, 0x00, 0x00, 0x00, 0xbf, 0xf9, 0xff, 0xff, 0x00, 0x00, 0x00, 0x00,
  0xea, 0xff, 0xff, 0xff, 0x72, 0xfc, 0xff, 0xff, 0xa9, 0xfb, 0xff, 0xff,
  0x6f, 0xfd, 0xff, 0xff, 0x6a, 0x05, 0x00, 0x00, 0x00, 0x00, 0x00, 0x00,
  0x75, 0xfa, 0xff, 0xff, 0xed, 0xfc, 0xff, 0xff, 0x3c, 0xfa, 0xff, 0xff,
  0x72, 0x02, 0x00, 0x00, 0x68, 0x00, 0x00, 0x00, 0x02, 0xf8, 0xff, 0xff,
  0x0c, 0x02, 0x00, 0x00, 0xf1, 0xff, 0xff, 0xff, 0x2e, 0xfe, 0xff, 0xff,
  0x04, 0x00, 0x00, 0x00, 0x00, 0x01, 0x00, 0x00, 0xf8, 0xa8, 0x97, 0x27,
  0x36, 0x3e, 0x98, 0x19, 0x20, 0xd4, 0x43, 0xe9, 0xb9, 0x5b, 0x7f, 0xc5,
  0xc8, 0xc6, 0x11, 0x10, 0x2a, 0xf5, 0x1b, 0xe4, 0x05, 0x48, 0xb8, 0x8c,
  0xb6, 0x0e, 0xba, 0x2c, 0x63, 0xd8, 0x3c, 0xb7, 0x96, 0x42, 0xb8, 0x25,
  0xf4, 0x43, 0xf3, 0x95, 0x3c, 0xb9, 0xb3, 0xa5, 0x25, 0xca, 0x36, 0xf5,
  0xe8, 0x1d, 0x2e, 0xd4, 0xfa, 0x1e, 0xa0, 0x34, 0xb2, 0xee, 0xd9, 0x21,
  0x2e, 0xdf, 0x81, 0x9f, 0xb5, 0xd5, 0x4c, 0x1f, 0x38, 0x27, 0x23, 0x5a,
  0xcb, 0x40, 0xe7, 0xe3, 0xf5, 0x13, 0x12, 0x00, 0x2a, 0xdb, 0x23, 0xd1,
  0x0e, 0x2a, 0x04, 0xc7, 0xa6, 0x2a, 0x1b, 0x68, 0x2a, 0x1a, 0xfe, 0x26,
  0x54, 0xb1, 0xad, 0xc6, 0x0e, 0x47, 0xda, 0x42, 0x1d, 0xc8, 0x03, 0x56,
  0x2e, 0xf2, 0xf9, 0xf8, 0xe3, 0xe5, 0xbb, 0x22, 0x38, 0xe0, 0x3b, 0xc4,
  0xe7, 0x36, 0xa3, 0xde, 0xf9, 0x53, 0xc8, 0xf7, 0x49, 0xf0, 0x81, 0x1d,
  0xcd, 0x02, 0xd5, 0xb5, 0xfe, 0xdd, 0xc1, 0x17, 0xfa, 0x24, 0xae, 0x17,
  0xc2, 0x45, 0xed, 0xfe, 0xd5, 0xd1, 0xdf, 0x3a, 0x59, 0xd3, 0x08, 0xa4,
  0xa7, 0xdb, 0x37, 0xc8, 0xae, 0x4f, 0x26, 0xdd, 0xca, 0x03, 0x3e, 0xf7,
  0xb8, 0xe1, 0xfe, 0xd3, 0x20, 0x05, 0x2f, 0xcf, 0xee, 0x36, 0x1a, 0xdf,
  0x31, 0x25, 0x01, 0x2d, 0x2c, 0xcb, 0xc3, 0x21, 0xe9, 0xe4, 0x6b, 0xe9,
  0xd8, 0xdc, 0x51, 0x2e, 0x11, 0x0e, 0x18, 0x35, 0x2a, 0xa7, 0xe6, 0x21,
  0x1a, 0x14, 0xd3, 0x1d, 0xd0, 0xec, 0x10, 0x34, 0xe0, 0xf9, 0xfa, 0x5c,
  0xae, 0xd0, 0x29, 0xa1, 0xd8, 0xd2, 0xd1, 0x0a, 0x1c, 0x10, 0x3a, 0x02,
  0xc6, 0x87, 0x2a, 0xd9, 0xed, 0xf0, 0x06, 0x41, 0xe3, 0xfd, 0xcc, 0x52,
  0x1b, 0xee, 0xfd, 0xf7, 0xaf, 0x9b, 0xde, 0xb2, 0x47, 0xe2, 0x7f, 0x14,
  0x3a, 0xff, 0xff, 0xff, 0x04, 0x00, 0x00, 0x00, 0x10, 0x00, 0x00, 0x00,
  0x14, 0xff, 0xff, 0xff, 0xf7, 0xfa, 0xff, 0xff, 0xa9, 0x02, 0x00, 0x00,
  0x4b, 0x04, 0x00, 0x00, 0x56, 0xff, 0xff, 0xff, 0x04, 0x00, 0x00, 0x00,
  0x08, 0x00, 0x00, 0x00, 0x01, 0x00, 0x00, 0x00, 0x02, 0x00, 0x00, 0x00,
  0xf8, 0xe7, 0xff, 0xff, 0xfc, 0xe7, 0xff, 0xff, 0x0f, 0x00, 0x00, 0x00,
  0x4d, 0x4c, 0x49, 0x52, 0x20, 0x43, 0x6f, 0x6e, 0x76, 0x65, 0x72, 0x74,
  0x65, 0x64, 0x2e, 0x00, 0x01, 0x00, 0x00, 0x00, 0x14, 0x00, 0x00, 0x00,
  0x00, 0x00, 0x0e, 0x00, 0x18, 0x00, 0x14, 0x00, 0x10, 0x00, 0x0c, 0x00,
  0x08, 0x00, 0x04, 0x00, 0x0e, 0x00, 0x00, 0x00, 0x14, 0x00, 0x00, 0x00,
  0x1c, 0x00, 0x00, 0x00, 0x5c, 0x02, 0x00, 0x00, 0x60, 0x02, 0x00, 0x00,
  0x64, 0x02, 0x00, 0x00, 0x04, 0x00, 0x00, 0x00, 0x6d, 0x61, 0x69, 0x6e,
  0x00, 0x00, 0x00, 0x00, 0x08, 0x00, 0x00, 0x00, 0xf8, 0x01, 0x00, 0x00,
  0x94, 0x01, 0x00, 0x00, 0x44, 0x01, 0x00, 0x00, 0x00, 0x01, 0x00, 0x00,
  0xbc, 0x00, 0x00, 0x00, 0x78, 0x00, 0x00, 0x00, 0x40, 0x00, 0x00, 0x00,
  0x04, 0x00, 0x00, 0x00, 0x96, 0xfe, 0xff, 0xff, 0x1c, 0x00, 0x00, 0x00,
  0x00, 0x00, 0x00, 0x09, 0x1c, 0x00, 0x00, 0x00, 0x20, 0x00, 0x00, 0x00,
  0x04, 0x00, 0x00, 0x00, 0x00, 0x00, 0x06, 0x00, 0x08, 0x00, 0x04, 0x00,
  0x06, 0x00, 0x00, 0x00, 0x00, 0x00, 0x80, 0x3f, 0x01, 0x00, 0x00, 0x00,
  0x11, 0x00, 0x00, 0x00, 0x01, 0x00, 0x00, 0x00, 0x10, 0x00, 0x00, 0x00,
  0x5a, 0xff, 0xff, 0xff, 0x14, 0x00, 0x00, 0x00, 0x00, 0x00, 0x00, 0x08,
  0x10, 0x00, 0x00, 0x00, 0x14, 0x00, 0x00, 0x00, 0x03, 0x00, 0x00, 0x00,
  0xc4, 0xe8, 0xff, 0xff, 0x01, 0x00, 0x00, 0x00, 0x10, 0x00, 0x00, 0x00,
  0x03, 0x00, 0x00, 0x00, 0x0f, 0x00, 0x00, 0x00, 0x03, 0x00, 0x00, 0x00,
  0x02, 0x00, 0x00, 0x00, 0x02, 0xff, 0xff, 0xff, 0x1c, 0x00, 0x00, 0x00,
  0x00, 0x00, 0x00, 0x08, 0x1c, 0x00, 0x00, 0x00, 0x20, 0x00, 0x00, 0x00,
  0x03, 0x00, 0x00, 0x00, 0x00, 0x00, 0x06, 0x00, 0x08, 0x00, 0x07, 0x00,
  0x06, 0x00, 0x00, 0x00, 0x00, 0x00, 0x00, 0x01, 0x01, 0x00, 0x00, 0x00,
  0x0f, 0x00, 0x00, 0x00, 0x03, 0x00, 0x00, 0x00, 0x0e, 0x00, 0x00, 0x00,
  0x05, 0x00, 0x00, 0x00, 0x04, 0x00, 0x00, 0x00, 0xce, 0xff, 0xff, 0xff,
  0x14, 0x00, 0x00, 0x00, 0x00, 0x00, 0x00, 0x1b, 0x10, 0x00, 0x00, 0x00,
  0x14, 0x00, 0x00, 0x00, 0x02, 0x00, 0x00, 0x00, 0x38, 0xe9, 0xff, 0xff,
  0x01, 0x00, 0x00, 0x00, 0x0e, 0x00, 0x00, 0x00, 0x02, 0x00, 0x00, 0x00,
  0x0d, 0x00, 0x00, 0x00, 0x01, 0x00, 0x00, 0x00, 0x00, 0x00, 0x0e, 0x00,
  0x18, 0x00, 0x14, 0x00, 0x10, 0x00, 0x0c, 0x00, 0x0b, 0x00, 0x04, 0x00,
  0x0e, 0x00, 0x00, 0x00, 0x14, 0x00, 0x00, 0x00, 0x00, 0x00, 0x00, 0x05,
  0x24, 0x00, 0x00, 0x00, 0x28, 0x00, 0x00, 0x00, 0x01, 0x00, 0x00, 0x00,
  0x72, 0xff, 0xff, 0xff, 0x02, 0x00, 0x00, 0x00, 0x02, 0x00, 0x00, 0x00,
  0x02, 0x00, 0x00, 0x00, 0x02, 0x00, 0x00, 0x00, 0x00, 0x00, 0x00, 0x01,
  0x01, 0x00, 0x00, 0x00, 0x0d, 0x00, 0x00, 0x00, 0x01, 0x00, 0x00, 0x00,
  0x0c, 0x00, 0x00, 0x00, 0x62, 0xff, 0xff, 0xff, 0x10, 0x00, 0x00, 0x00,
  0x00, 0x00, 0x00, 0x01, 0x18, 0x00, 0x00, 0x00, 0x1c, 0x00, 0x00, 0x00,
  0x54, 0xff, 0xff, 0xff, 0x00, 0x00, 0x00, 0x01, 0x01, 0x00, 0x00, 0x00,
  0x01, 0x00, 0x00, 0x00, 0x01, 0x00, 0x00, 0x00, 0x0c, 0x00, 0x00, 0x00,
  0x03, 0x00, 0x00, 0x00, 0x0b, 0x00, 0x00, 0x00, 0x07, 0x00, 0x00, 0x00,
  0x06, 0x00, 0x00, 0x00, 0x00, 0x00, 0x0e, 0x00, 0x1a, 0x00, 0x14, 0x00,
  0x10, 0x00, 0x0c, 0x00, 0x0b, 0x00, 0x04, 0x00, 0x0e, 0x00, 0x00, 0x00,
  0x24, 0x00, 0x00, 0x00, 0x00, 0x00, 0x00, 0x05, 0x34, 0x00, 0x00, 0x00,
  0x38, 0x00, 0x00, 0x00, 0x01, 0x00, 0x00, 0x00, 0x00, 0x00, 0x0e, 0x00,
  0x18, 0x00, 0x17, 0x00, 0x10, 0x00, 0x0c, 0x00, 0x08, 0x00, 0x04, 0x00,
  0x0e, 0x00, 0x00, 0x00, 0x02, 0x00, 0x00, 0x00, 0x02, 0x00, 0x00, 0x00,
  0x02, 0x00, 0x00, 0x00, 0x02, 0x00, 0x00, 0x00, 0x00, 0x00, 0x00, 0x01,
  0x01, 0x00, 0x00, 0x00, 0x0b, 0x00, 0x00, 0x00, 0x01, 0x00, 0x00, 0x00,
  0x0a, 0x00, 0x00, 0x00, 0x00, 0x00, 0x0e, 0x00, 0x14, 0x00, 0x00, 0x00,
  0x10, 0x00, 0x0c, 0x00, 0x0b, 0x00, 0x04, 0x00, 0x0e, 0x00, 0x00, 0x00,
  0x1c, 0x00, 0x00, 0x00, 0x00, 0x00, 0x00, 0x01, 0x24, 0x00, 0x00, 0x00,
  0x28, 0x00, 0x00, 0x00, 0x0c, 0x00, 0x10, 0x00, 0x00, 0x00, 0x0c, 0x00,
  0x08, 0x00, 0x07, 0x00, 0x0c, 0x00, 0x00, 0x00, 0x00, 0x00, 0x00, 0x01,
  0x01, 0x00, 0x00, 0x00, 0x01, 0x00, 0x00, 0x00, 0x01, 0x00, 0x00, 0x00,
  0x0a, 0x00, 0x00, 0x00, 0x03, 0x00, 0x00, 0x00, 0x00, 0x00, 0x00, 0x00,
  0x09, 0x00, 0x00, 0x00, 0x08, 0x00, 0x00, 0x00, 0x01, 0x00, 0x00, 0x00,
  0x11, 0x00, 0x00, 0x00, 0x01, 0x00, 0x00, 0x00, 0x00, 0x00, 0x00, 0x00,
  0x12, 0x00, 0x00, 0x00, 0x94, 0x15, 0x00, 0x00, 0x38, 0x15, 0x00, 0x00,
  0x98, 0x14, 0x00, 0x00, 0x0c, 0x14, 0x00, 0x00, 0xb8, 0x10, 0x00, 0x00,
  0x5c, 0x0d, 0x00, 0x00, 0x88, 0x0b, 0x00, 0x00, 0xa4, 0x09, 0x00, 0x00,
  0x90, 0x08, 0x00, 0x00, 0x6c, 0x07, 0x00, 0x00, 0xb0, 0x05, 0x00, 0x00,
  0x14, 0x05, 0x00, 0x00, 0x28, 0x03, 0x00, 0x00, 0x84, 0x02, 0x00, 0x00,
  0xf0, 0x01, 0x00, 0x00, 0x2c, 0x01, 0x00, 0x00, 0x80, 0x00, 0x00, 0x00,
  0x04, 0x00, 0x00, 0x00, 0xca, 0xea, 0xff, 0xff, 0x00, 0x00, 0x00, 0x01,
  0x18, 0x00, 0x00, 0x00, 0x20, 0x00, 0x00, 0x00, 0x3c, 0x00, 0x00, 0x00,
  0x12, 0x00, 0x00, 0x00, 0x00, 0x00, 0x00, 0x09, 0x50, 0x00, 0x00, 0x00,
  0x02, 0x00, 0x00, 0x00, 0xff, 0xff, 0xff, 0xff, 0x04, 0x00, 0x00, 0x00,
  0xac, 0xea, 0xff, 0xff, 0x08, 0x00, 0x00, 0x00, 0x10, 0x00, 0x00, 0x00,
  0x01, 0x00, 0x00, 0x00, 0x80, 0xff, 0xff, 0xff, 0xff, 0xff, 0xff, 0xff,
  0x01, 0x00, 0x00, 0x00, 0x00, 0x00, 0x80, 0x3b, 0x1b, 0x00, 0x00, 0x00,
  0x53, 0x74, 0x61, 0x74, 0x65, 0x66, 0x75, 0x6c, 0x50, 0x61, 0x72, 0x74,
  0x69, 0x74, 0x69, 0x6f, 0x6e, 0x65, 0x64, 0x43, 0x61, 0x6c, 0x6c, 0x5f,
  0x31, 0x3a, 0x30, 0x00, 0x02, 0x00, 0x00, 0x00, 0x01, 0x00, 0x00, 0x00,
  0x04, 0x00, 0x00, 0x00, 0x42, 0xeb, 0xff, 0xff, 0x00, 0x00, 0x00, 0x01,
  0x18, 0x00, 0x00, 0x00, 0x20, 0x00, 0x00, 0x00, 0x40, 0x00, 0x00, 0x00,
  0x11, 0x00, 0x00, 0x00, 0x00, 0x00, 0x00, 0x09, 0x80, 0x00, 0x00, 0x00,
  0x02, 0x00, 0x00, 0x00, 0xff, 0xff, 0xff, 0xff, 0x04, 0x00, 0x00, 0x00,
  0x24, 0xeb, 0xff, 0xff, 0x08, 0x00, 0x00, 0x00, 0x14, 0x00, 0x00, 0x00,
  0x01, 0x00, 0x00, 0x00, 0xf7, 0xff, 0xff, 0xff, 0xff, 0xff, 0xff, 0xff,
  0x00, 0x00, 0x00, 0x00, 0x01, 0x00, 0x00, 0x00, 0x78, 0x26, 0x98, 0x3d,
  0x44, 0x00, 0x00, 0x00, 0x6d, 0x66, 0x63, 0x63, 0x5f, 0x63, 0x6e, 0x6e,
  0x5f, 0x6c, 0x69, 0x67, 0x68, 0x74, 0x5f, 0x31, 0x2f, 0x64, 0x65, 0x6e,
  0x73, 0x65, 0x5f, 0x31, 0x5f, 0x32, 0x2f, 0x4d, 0x61, 0x74, 0x4d, 0x75,
  0x6c, 0x3b, 0x6d, 0x66, 0x63, 0x63, 0x5f, 0x63, 0x6e, 0x6e, 0x5f, 0x6c,
  0x69, 0x67, 0x68, 0x74, 0x5f, 0x31, 0x2f, 0x64, 0x65, 0x6e, 0x73, 0x65,
  0x5f, 0x31, 0x5f, 0x32, 0x2f, 0x42, 0x69, 0x61, 0x73, 0x41, 0x64, 0x64,
  0x00, 0x00, 0x00, 0x00, 0x02, 0x00, 0x00, 0x00, 0x01, 0x00, 0x00, 0x00,
  0x04, 0x00, 0x00, 0x00, 0xea, 0xeb, 0xff, 0xff, 0x00, 0x00, 0x00, 0x01,
  0x18, 0x00, 0x00, 0x00, 0x20, 0x00, 0x00, 0x00, 0x40, 0x00, 0x00, 0x00,
  0x10, 0x00, 0x00, 0x00, 0x00, 0x00, 0x00, 0x09, 0x98, 0x00, 0x00, 0x00,
  0x02, 0x00, 0x00, 0x00, 0xff, 0xff, 0xff, 0xff, 0x40, 0x00, 0x00, 0x00,
  0xcc, 0xeb, 0xff, 0xff, 0x08, 0x00, 0x00, 0x00, 0x14, 0x00, 0x00, 0x00,
  0x01, 0x00, 0x00, 0x00, 0x80, 0xff, 0xff, 0xff, 0xff, 0xff, 0xff, 0xff,
  0x00, 0x00, 0x00, 0x00, 0x01, 0x00, 0x00, 0x00, 0xbd, 0x30, 0x60, 0x3c,
  0x5e, 0x00, 0x00, 0x00, 0x6d, 0x66, 0x63, 0x63, 0x5f, 0x63, 0x6e, 0x6e,
  0x5f, 0x6c, 0x69, 0x67, 0x68, 0x74, 0x5f, 0x31, 0x2f, 0x64, 0x65, 0x6e,
  0x73, 0x65, 0x5f, 0x31, 0x2f, 0x4d, 0x61, 0x74, 0x4d, 0x75, 0x6c, 0x3b,
  0x6d, 0x66, 0x63, 0x63, 0x5f, 0x63, 0x6e, 0x6e, 0x5f, 0x6c, 0x69, 0x67,
  0x68, 0x74, 0x5f, 0x31, 0x2f, 0x64, 0x65, 0x6e, 0x73, 0x65, 0x5f, 0x31,
  0x2f, 0x52, 0x65, 0x6c, 0x75, 0x3b, 0x6d, 0x66, 0x63, 0x63, 0x5f, 0x63,
  0x6e, 0x6e, 0x5f, 0x6c, 0x69, 0x67, 0x68, 0x74, 0x5f, 0x31, 0x2f, 0x64,
  0x65, 0x6e, 0x73, 0x65, 0x5f, 0x31, 0x2f, 0x42, 0x69, 0x61, 0x73, 0x41,
  0x64, 0x64, 0x00, 0x00, 0x02, 0x00, 0x00, 0x00, 0x01, 0x00, 0x00, 0x00,
  0x40, 0x00, 0x00, 0x00, 0xaa, 0xec, 0xff, 0xff, 0x00, 0x00, 0x00, 0x01,
  0x18, 0x00, 0x00, 0x00, 0x20, 0x00, 0x00, 0x00, 0x3c, 0x00, 0x00, 0x00,
  0x0f, 0x00, 0x00, 0x00, 0x00, 0x00, 0x00, 0x09, 0x68, 0x00, 0x00, 0x00,
  0x02, 0x00, 0x00, 0x00, 0xff, 0xff, 0xff, 0xff, 0x20, 0x00, 0x00, 0x00,
  0x8c, 0xec, 0xff, 0xff, 0x08, 0x00, 0x00, 0x00, 0x10, 0x00, 0x00, 0x00,
  0x01, 0x00, 0x00, 0x00, 0x80, 0xff, 0xff, 0xff, 0xff, 0xff, 0xff, 0xff,
  0x01, 0x00, 0x00, 0x00, 0xd4, 0x20, 0x40, 0x3c, 0x30, 0x00, 0x00, 0x00,
  0x6d, 0x66, 0x63, 0x63, 0x5f, 0x63, 0x6e, 0x6e, 0x5f, 0x6c, 0x69, 0x67,
  0x68, 0x74, 0x5f, 0x31, 0x2f, 0x67, 0x6c, 0x6f, 0x62, 0x61, 0x6c, 0x5f,
  0x61, 0x76, 0x65, 0x72, 0x61, 0x67, 0x65, 0x5f, 0x70, 0x6f, 0x6f, 0x6c,
  0x69, 0x6e, 0x67, 0x32, 0x64, 0x5f, 0x31, 0x2f, 0x4d, 0x65, 0x61, 0x6e,
  0x00, 0x00, 0x00, 0x00, 0x02, 0x00, 0x00, 0x00, 0x01, 0x00, 0x00, 0x00,
  0x20, 0x00, 0x00, 0x00, 0x3a, 0xed, 0xff, 0xff, 0x00, 0x00, 0x00, 0x01,
  0x18, 0x00, 0x00, 0x00, 0x28, 0x00, 0x00, 0x00, 0x48, 0x00, 0x00, 0x00,
  0x0e, 0x00, 0x00, 0x00, 0x00, 0x00, 0x00, 0x09, 0x70, 0x00, 0x00, 0x00,
  0x04, 0x00, 0x00, 0x00, 0xff, 0xff, 0xff, 0xff, 0x03, 0x00, 0x00, 0x00,
  0x1f, 0x00, 0x00, 0x00, 0x20, 0x00, 0x00, 0x00, 0x24, 0xed, 0xff, 0xff,
  0x08, 0x00, 0x00, 0x00, 0x14, 0x00, 0x00, 0x00, 0x01, 0x00, 0x00, 0x00,
  0x80, 0xff, 0xff, 0xff, 0xff, 0xff, 0xff, 0xff, 0x00, 0x00, 0x00, 0x00,
  0x01, 0x00, 0x00, 0x00, 0x44, 0xe4, 0x40, 0x3d, 0x2c, 0x00, 0x00, 0x00,
  0x6d, 0x66, 0x63, 0x63, 0x5f, 0x63, 0x6e, 0x6e, 0x5f, 0x6c, 0x69, 0x67,
  0x68, 0x74, 0x5f, 0x31, 0x2f, 0x6d, 0x61, 0x78, 0x5f, 0x70, 0x6f, 0x6f,
  0x6c, 0x69, 0x6e, 0x67, 0x32, 0x64, 0x5f, 0x31, 0x5f, 0x32, 0x2f, 0x4d,
  0x61, 0x78, 0x50, 0x6f, 0x6f, 0x6c, 0x32, 0x64, 0x00, 0x00, 0x00, 0x00,
  0x04, 0x00, 0x00, 0x00, 0x01, 0x00, 0x00, 0x00, 0x03, 0x00, 0x00, 0x00,
  0x1f, 0x00, 0x00, 0x00, 0x20, 0x00, 0x00, 0x00, 0xda, 0xed, 0xff, 0xff,
  0x00, 0x00, 0x00, 0x01, 0x18, 0x00, 0x00, 0x00, 0x28, 0x00, 0x00, 0x00,
  0x48, 0x00, 0x00, 0x00, 0x0d, 0x00, 0x00, 0x00, 0x00, 0x00, 0x00, 0x09,
  0xb8, 0x01, 0x00, 0x00, 0x04, 0x00, 0x00, 0x00, 0xff, 0xff, 0xff, 0xff,
  0x06, 0x00, 0x00, 0x00, 0x3e, 0x00, 0x00, 0x00, 0x20, 0x00, 0x00, 0x00,
  0xc4, 0xed, 0xff, 0xff, 0x08, 0x00, 0x00, 0x00, 0x14, 0x00, 0x00, 0x00,
  0x01, 0x00, 0x00, 0x00, 0x80, 0xff, 0xff, 0xff, 0xff, 0xff, 0xff, 0xff,
  0x00, 0x00, 0x00, 0x00, 0x01, 0x00, 0x00, 0x00, 0x44, 0xe4, 0x40, 0x3d,
  0x74, 0x01, 0x00, 0x00, 0x6d, 0x66, 0x63, 0x63, 0x5f, 0x63, 0x6e, 0x6e,
  0x5f, 0x6c, 0x69, 0x67, 0x68, 0x74, 0x5f, 0x31, 0x2f, 0x61, 0x63, 0x74,
  0x69, 0x76, 0x61, 0x74, 0x69, 0x6f, 0x6e, 0x5f, 0x31, 0x5f, 0x32, 0x2f,
  0x52, 0x65, 0x6c, 0x75, 0x3b, 0x6d, 0x66, 0x63, 0x63, 0x5f, 0x63, 0x6e,
  0x6e, 0x5f, 0x6c, 0x69, 0x67, 0x68, 0x74, 0x5f, 0x31, 0x2f, 0x62, 0x61,
  0x74, 0x63, 0x68, 0x5f, 0x6e, 0x6f, 0x72, 0x6d, 0x61, 0x6c, 0x69, 0x7a,
  0x61, 0x74, 0x69, 0x6f, 0x6e, 0x5f, 0x31, 0x5f, 0x32, 0x2f, 0x62, 0x61,
  0x74, 0x63, 0x68, 0x6e, 0x6f, 0x72, 0x6d, 0x2f, 0x61, 0x64, 0x64, 0x5f,
  0x31, 0x3b, 0x6d, 0x66, 0x63, 0x63, 0x5f, 0x63, 0x6e, 0x6e, 0x5f, 0x6c,
  0x69, 0x67, 0x68, 0x74, 0x5f, 0x31, 0x2f, 0x62, 0x61, 0x74, 0x63, 0x68,
  0x5f, 0x6e, 0x6f, 0x72, 0x6d, 0x61, 0x6c, 0x69, 0x7a, 0x61, 0x74, 0x69,
  0x6f, 0x6e, 0x5f, 0x31, 0x5f, 0x32, 0x2f, 0x62, 0x61, 0x74, 0x63, 0x68,
  0x6e, 0x6f, 0x72, 0x6d, 0x2f, 0x6d, 0x75, 0x6c, 0x5f, 0x31, 0x3b, 0x6d,
  0x66, 0x63, 0x63, 0x5f, 0x63, 0x6e, 0x6e, 0x5f, 0x6c, 0x69, 0x67, 0x68,
  0x74, 0x5f, 0x31, 0x2f, 0x63, 0x6f, 0x6e, 0x76, 0x32, 0x64, 0x5f, 0x31,
  0x5f, 0x32, 0x2f, 0x53, 0x71, 0x75, 0x65, 0x65, 0x7a, 0x65, 0x3b, 0x6d,
  0x66, 0x63, 0x63, 0x5f, 0x63, 0x6e, 0x6e, 0x5f, 0x6c, 0x69, 0x67, 0x68,
  0x74, 0x5f, 0x31, 0x2f, 0x63, 0x6f, 0x6e, 0x76, 0x32, 0x64, 0x5f, 0x31,
  0x5f, 0x32, 0x2f, 0x42, 0x69, 0x61, 0x73, 0x41, 0x64, 0x64, 0x3b, 0x6d,
  0x66, 0x63, 0x63, 0x5f, 0x63, 0x6e, 0x6e, 0x5f, 0x6c, 0x69, 0x67, 0x68,
  0x74, 0x5f, 0x31, 0x2f, 0x62, 0x61, 0x74, 0x63, 0x68, 0x5f, 0x6e, 0x6f,
  0x72, 0x6d, 0x61, 0x6c, 0x69, 0x7a, 0x61, 0x74, 0x69, 0x6f, 0x6e, 0x5f,
  0x31, 0x5f, 0x32, 0x2f, 0x62, 0x61, 0x74, 0x63, 0x68, 0x6e, 0x6f, 0x72,
  0x6d, 0x2f, 0x6d, 0x75, 0x6c, 0x3b, 0x6d, 0x66, 0x63, 0x63, 0x5f, 0x63,
  0x6e, 0x6e, 0x5f, 0x6c, 0x69, 0x67, 0x68, 0x74, 0x5f, 0x31, 0x2f, 0x63,
  0x6f, 0x6e, 0x76, 0x32, 0x64, 0x5f, 0x31, 0x5f, 0x32, 0x2f, 0x63, 0x6f,
  0x6e, 0x76, 0x6f, 0x6c, 0x75, 0x74, 0x69, 0x6f, 0x6e, 0x3b, 0x6d, 0x66,
  0x63, 0x63, 0x5f, 0x63, 0x6e, 0x6e, 0x5f, 0x6c, 0x69, 0x67, 0x68, 0x74,
  0x5f, 0x31, 0x2f, 0x62, 0x61, 0x74, 0x63, 0x68, 0x5f, 0x6e, 0x6f, 0x72,
  0x6d, 0x61, 0x6c, 0x69, 0x7a, 0x61, 0x74, 0x69, 0x6f, 0x6e, 0x5f, 0x31,
  0x5f, 0x32, 0x2f, 0x62, 0x61, 0x74, 0x63, 0x68, 0x6e, 0x6f, 0x72, 0x6d,
  0x2f, 0x73, 0x75, 0x62, 0x00, 0x00, 0x00, 0x00, 0x04, 0x00, 0x00, 0x00,
  0x01, 0x00, 0x00, 0x00, 0x06, 0x00, 0x00, 0x00, 0x3e, 0x00, 0x00, 0x00,
  0x20, 0x00, 0x00, 0x00, 0xc2, 0xef, 0xff, 0xff, 0x00, 0x00, 0x00, 0x01,
  0x18, 0x00, 0x00, 0x00, 0x28, 0x00, 0x00, 0x00, 0x44, 0x00, 0x00, 0x00,
  0x0c, 0x00, 0x00, 0x00, 0x00, 0x00, 0x00, 0x09, 0x68, 0x00, 0x00, 0x00,
  0x04, 0x00, 0x00, 0x00, 0xff, 0xff, 0xff, 0xff, 0x06, 0x00, 0x00, 0x00,
  0x3e, 0x00, 0x00, 0x00, 0x10, 0x00, 0x00, 0x00, 0xac, 0xef, 0xff, 0xff,
  0x08, 0x00, 0x00, 0x00, 0x10, 0x00, 0x00, 0x00, 0x01, 0x00, 0x00, 0x00,
  0x80, 0xff, 0xff, 0xff, 0xff, 0xff, 0xff, 0xff, 0x01, 0x00, 0x00, 0x00,
  0x00, 0x50, 0x12, 0x3d, 0x2a, 0x00, 0x00, 0x00, 0x6d, 0x66, 0x63, 0x63,
  0x5f, 0x63, 0x6e, 0x6e, 0x5f, 0x6c, 0x69, 0x67, 0x68, 0x74, 0x5f, 0x31,
  0x2f, 0x6d, 0x61, 0x78, 0x5f, 0x70, 0x6f, 0x6f, 0x6c, 0x69, 0x6e, 0x67,
  0x32, 0x64, 0x5f, 0x31, 0x2f, 0x4d, 0x61, 0x78, 0x50, 0x6f, 0x6f, 0x6c,
  0x32, 0x64, 0x00, 0x00, 0x04, 0x00, 0x00, 0x00, 0x01, 0x00, 0x00, 0x00,
  0x06, 0x00, 0x00, 0x00, 0x3e, 0x00, 0x00, 0x00, 0x10, 0x00, 0x00, 0x00,
  0x5a, 0xf0, 0xff, 0xff, 0x00, 0x00, 0x00, 0x01, 0x18, 0x00, 0x00, 0x00,
  0x28, 0x00, 0x00, 0x00, 0x48, 0x00, 0x00, 0x00, 0x0b, 0x00, 0x00, 0x00,
  0x00, 0x00, 0x00, 0x09, 0x88, 0x01, 0x00, 0x00, 0x04, 0x00, 0x00, 0x00,
  0xff, 0xff, 0xff, 0xff, 0x0d, 0x00, 0x00, 0x00, 0x7c, 0x00, 0x00, 0x00,
  0x10, 0x00, 0x00, 0x00, 0x44, 0xf0, 0xff, 0xff, 0x08, 0x00, 0x00, 0x00,
  0x14, 0x00, 0x00, 0x00, 0x01, 0x00, 0x00, 0x00, 0x80, 0xff, 0xff, 0xff,
  0xff, 0xff, 0xff, 0xff, 0x00, 0x00, 0x00, 0x00, 0x01, 0x00, 0x00, 0x00,
  0x00, 0x50, 0x12, 0x3d, 0x44, 0x01, 0x00, 0x00, 0x6d, 0x66, 0x63, 0x63,
  0x5f, 0x63, 0x6e, 0x6e, 0x5f, 0x6c, 0x69, 0x67, 0x68, 0x74, 0x5f, 0x31,
  0x2f, 0x61, 0x63, 0x74, 0x69, 0x76, 0x61, 0x74, 0x69, 0x6f, 0x6e, 0x5f,
  0x31, 0x2f, 0x52, 0x65, 0x6c, 0x75, 0x3b, 0x6d, 0x66, 0x63, 0x63, 0x5f,
  0x63, 0x6e, 0x6e, 0x5f, 0x6c, 0x69, 0x67, 0x68, 0x74, 0x5f, 0x31, 0x2f,
  0x62, 0x61, 0x74, 0x63, 0x68, 0x5f, 0x6e, 0x6f, 0x72, 0x6d, 0x61, 0x6c,
  0x69, 0x7a, 0x61, 0x74, 0x69, 0x6f, 0x6e, 0x5f, 0x31, 0x2f, 0x62, 0x61,
  0x74, 0x63, 0x68, 0x6e, 0x6f, 0x72, 0x6d, 0x2f, 0x61, 0x64, 0x64, 0x5f,
  0x31, 0x3b, 0x6d, 0x66, 0x63, 0x63, 0x5f, 0x63, 0x6e, 0x6e, 0x5f, 0x6c,
  0x69, 0x67, 0x68, 0x74, 0x5f, 0x31, 0x2f, 0x62, 0x61, 0x74, 0x63, 0x68,
  0x5f, 0x6e, 0x6f, 0x72, 0x6d, 0x61, 0x6c, 0x69, 0x7a, 0x61, 0x74, 0x69,
  0x6f, 0x6e, 0x5f, 0x31, 0x2f, 0x62, 0x61, 0x74, 0x63, 0x68, 0x6e, 0x6f,
  0x72, 0x6d, 0x2f, 0x6d, 0x75, 0x6c, 0x5f, 0x31, 0x3b, 0x3b, 0x6d, 0x66,
  0x63, 0x63, 0x5f, 0x63, 0x6e, 0x6e, 0x5f, 0x6c, 0x69, 0x67, 0x68, 0x74,
  0x5f, 0x31, 0x2f, 0x63, 0x6f, 0x6e, 0x76, 0x32, 0x64, 0x5f, 0x31, 0x2f,
  0x42, 0x69, 0x61, 0x73, 0x41, 0x64, 0x64, 0x3b, 0x6d, 0x66, 0x63, 0x63,
  0x5f, 0x63, 0x6e, 0x6e, 0x5f, 0x6c, 0x69, 0x67, 0x68, 0x74, 0x5f, 0x31,
  0x2f, 0x62, 0x61, 0x74, 0x63, 0x68, 0x5f, 0x6e, 0x6f, 0x72, 0x6d, 0x61,
  0x6c, 0x69, 0x7a, 0x61, 0x74, 0x69, 0x6f, 0x6e, 0x5f, 0x31, 0x2f, 0x62,
  0x61, 0x74, 0x63, 0x68, 0x6e, 0x6f, 0x72, 0x6d, 0x2f, 0x6d, 0x75, 0x6c,
  0x3b, 0x6d, 0x66, 0x63, 0x63, 0x5f, 0x63, 0x6e, 0x6e, 0x5f, 0x6c, 0x69,
  0x67, 0x68, 0x74, 0x5f, 0x31, 0x2f, 0x63, 0x6f, 0x6e, 0x76, 0x32, 0x64,
  0x5f, 0x31, 0x2f, 0x63, 0x6f, 0x6e, 0x76, 0x6f, 0x6c, 0x75, 0x74, 0x69,
  0x6f, 0x6e, 0x3b, 0x6d, 0x66, 0x63, 0x63, 0x5f, 0x63, 0x6e, 0x6e, 0x5f,
  0x6c, 0x69, 0x67, 0x68, 0x74, 0x5f, 0x31, 0x2f, 0x62, 0x61, 0x74, 0x63,
  0x68, 0x5f, 0x6e, 0x6f, 0x72, 0x6d, 0x61, 0x6c, 0x69, 0x7a, 0x61, 0x74,
  0x69, 0x6f, 0x6e, 0x5f, 0x31, 0x2f, 0x62, 0x61, 0x74, 0x63, 0x68, 0x6e,
  0x6f, 0x72, 0x6d, 0x2f, 0x73, 0x75, 0x62, 0x31, 0x00, 0x00, 0x00, 0x00,
  0x04, 0x00, 0x00, 0x00, 0x01, 0x00, 0x00, 0x00, 0x0d, 0x00, 0x00, 0x00,
  0x7c, 0x00, 0x00, 0x00, 0x10, 0x00, 0x00, 0x00, 0x6a, 0xf2, 0xff, 0xff,
  0x00, 0x00, 0x00, 0x01, 0x14, 0x00, 0x00, 0x00, 0xe8, 0x00, 0x00, 0x00,
  0x0a, 0x00, 0x00, 0x00, 0x00, 0x00, 0x00, 0x09, 0xf4, 0x00, 0x00, 0x00,
  0xe4, 0xf1, 0xff, 0xff, 0x08, 0x00, 0x00, 0x00, 0x8c, 0x00, 0x00, 0x00,
  0x10, 0x00, 0x00, 0x00, 0x00, 0x00, 0x00, 0x00, 0x00, 0x00, 0x00, 0x00,
  0x00, 0x00, 0x00, 0x00, 0x00, 0x00, 0x00, 0x00, 0x00, 0x00, 0x00, 0x00,
  0x00, 0x00, 0x00, 0x00, 0x00, 0x00, 0x00, 0x00, 0x00, 0x00, 0x00, 0x00,
  0x00, 0x00, 0x00, 0x00, 0x00, 0x00, 0x00, 0x00, 0x00, 0x00, 0x00, 0x00,
  0x00, 0x00, 0x00, 0x00, 0x00, 0x00, 0x00, 0x00, 0x00, 0x00, 0x00, 0x00,
  0x00, 0x00, 0x00, 0x00, 0x00, 0x00, 0x00, 0x00, 0x00, 0x00, 0x00, 0x00,
  0x00, 0x00, 0x00, 0x00, 0x00, 0x00, 0x00, 0x00, 0x00, 0x00, 0x00, 0x00,
  0x00, 0x00, 0x00, 0x00, 0x00, 0x00, 0x00, 0x00, 0x00, 0x00, 0x00, 0x00,
  0x00, 0x00, 0x00, 0x00, 0x00, 0x00, 0x00, 0x00, 0x00, 0x00, 0x00, 0x00,
  0x00, 0x00, 0x00, 0x00, 0x00, 0x00, 0x00, 0x00, 0x00, 0x00, 0x00, 0x00,
  0x00, 0x00, 0x00, 0x00, 0x00, 0x00, 0x00, 0x00, 0x00, 0x00, 0x00, 0x00,
  0x00, 0x00, 0x00, 0x00, 0x10, 0x00, 0x00, 0x00, 0x73, 0x38, 0xc9, 0x3b,
  0x92, 0x1e, 0x69, 0x3b, 0xbd, 0x15, 0x93, 0x3b, 0xed, 0x16, 0x79, 0x3b,
  0x66, 0x3b, 0x75, 0x3b, 0x3a, 0xec, 0x98, 0x3b, 0x70, 0xa3, 0x56, 0x3b,
  0xe7, 0xb5, 0x65, 0x3b, 0xef, 0xe3, 0x92, 0x3b, 0xb0, 0x4b, 0x43, 0x3b,
  0x33, 0xd6, 0x67, 0x3b, 0x5a, 0x09, 0xd0, 0x3b, 0x93, 0x6d, 0x55, 0x3b,
  0xde, 0x37, 0x67, 0x3b, 0xce, 0xa6, 0x77, 0x3b, 0xcb, 0x96, 0x5b, 0x3b,
  0x12, 0x00, 0x00, 0x00, 0x74, 0x66, 0x6c, 0x2e, 0x70, 0x73, 0x65, 0x75,
  0x64, 0x6f, 0x5f, 0x71, 0x63, 0x6f, 0x6e, 0x73, 0x74, 0x37, 0x00, 0x00,
  0x04, 0x00, 0x00, 0x00, 0x10, 0x00, 0x00, 0x00, 0x03, 0x00, 0x00, 0x00,
  0x03, 0x00, 0x00, 0x00, 0x01, 0x00, 0x00, 0x00, 0x8a, 0xf3, 0xff, 0xff,
  0x00, 0x00, 0x00, 0x01, 0x14, 0x00, 0x00, 0x00, 0xe4, 0x00, 0x00, 0x00,
  0x09, 0x00, 0x00, 0x00, 0x00, 0x00, 0x00, 0x02, 0xf0, 0x00, 0x00, 0x00,
  0x04, 0xf3, 0xff, 0xff, 0x08, 0x00, 0x00, 0x00, 0x88, 0x00, 0x00, 0x00,
  0x10, 0x00, 0x00, 0x00, 0x00, 0x00, 0x00, 0x00, 0x00, 0x00, 0x00, 0x00,
  0x00, 0x00, 0x00, 0x00, 0x00, 0x00, 0x00, 0x00, 0x00, 0x00, 0x00, 0x00,
  0x00, 0x00, 0x00, 0x00, 0x00, 0x00, 0x00, 0x00, 0x00, 0x00, 0x00, 0x00,
  0x00, 0x00, 0x00, 0x00, 0x00, 0x00, 0x00, 0x00, 0x00, 0x00, 0x00, 0x00,
  0x00, 0x00, 0x00, 0x00, 0x00, 0x00, 0x00, 0x00, 0x00, 0x00, 0x00, 0x00,
  0x00, 0x00, 0x00, 0x00, 0x00, 0x00, 0x00, 0x00, 0x00, 0x00, 0x00, 0x00,
  0x00, 0x00, 0x00, 0x00, 0x00, 0x00, 0x00, 0x00, 0x00, 0x00, 0x00, 0x00,
  0x00, 0x00, 0x00, 0x00, 0x00, 0x00, 0x00, 0x00, 0x00, 0x00, 0x00, 0x00,
  0x00, 0x00, 0x00, 0x00, 0x00, 0x00, 0x00, 0x00, 0x00, 0x00, 0x00, 0x00,
  0x00, 0x00, 0x00, 0x00, 0x00, 0x00, 0x00, 0x00, 0x00, 0x00, 0x00, 0x00,
  0x00, 0x00, 0x00, 0x00, 0x00, 0x00, 0x00, 0x00, 0x00, 0x00, 0x00, 0x00,
  0x10, 0x00, 0x00, 0x00, 0x92, 0xaa, 0xa2, 0x39, 0x0c, 0x74, 0x3c, 0x39,
  0x6d, 0xce, 0x6d, 0x39, 0x11, 0x5d, 0x49, 0x39, 0xc0, 0x3e, 0x46, 0x39,
  0xb6, 0x3e, 0x77, 0x39, 0x69, 0x83, 0x2d, 0x39, 0x96, 0xb2, 0x39, 0x39,
  0xe7, 0x7d, 0x6d, 0x39, 0x6c, 0xe0, 0x1d, 0x39, 0x98, 0x6a, 0x3b, 0x39,
  0x25, 0x2d, 0xa8, 0x39, 0xea, 0x88, 0x2c, 0x39, 0x99, 0xea, 0x3a, 0x39,
  0x7b, 0x33, 0x48, 0x39, 0xf0, 0x83, 0x31, 0x39, 0x12, 0x00, 0x00, 0x00,
  0x74, 0x66, 0x6c, 0x2e, 0x70, 0x73, 0x65, 0x75, 0x64, 0x6f, 0x5f, 0x71,
  0x63, 0x6f, 0x6e, 0x73, 0x74, 0x36, 0x00, 0x00, 0x01, 0x00, 0x00, 0x00,
  0x10, 0x00, 0x00, 0x00, 0x9a, 0xf4, 0xff, 0xff, 0x00, 0x00, 0x00, 0x01,
  0x14, 0x00, 0x00, 0x00, 0xa8, 0x01, 0x00, 0x00, 0x08, 0x00, 0x00, 0x00,
  0x00, 0x00, 0x00, 0x09, 0xb4, 0x01, 0x00, 0x00, 0x14, 0xf4, 0xff, 0xff,
  0x08, 0x00, 0x00, 0x00, 0x0c, 0x01, 0x00, 0x00, 0x20, 0x00, 0x00, 0x00,
  0x00, 0x00, 0x00, 0x00, 0x00, 0x00, 0x00, 0x00, 0x00, 0x00, 0x00, 0x00,
  0x00, 0x00, 0x00, 0x00, 0x00, 0x00, 0x00, 0x00, 0x00, 0x00, 0x00, 0x00,
  0x00, 0x00, 0x00, 0x00, 0x00, 0x00, 0x00, 0x00, 0x00, 0x00, 0x00, 0x00,
  0x00, 0x00, 0x00, 0x00, 0x00, 0x00, 0x00, 0x00, 0x00, 0x00, 0x00, 0x00,
  0x00, 0x00, 0x00, 0x00, 0x00, 0x00, 0x00, 0x00, 0x00, 0x00, 0x00, 0x00,
  0x00, 0x00, 0x00, 0x00, 0x00, 0x00, 0x00, 0x00, 0x00, 0x00, 0x00, 0x00,
  0x00, 0x00, 0x00, 0x00, 0x00, 0x00, 0x00, 0x00, 0x00, 0x00, 0x00, 0x00,
  0x00, 0x00, 0x00, 0x00, 0x00, 0x00, 0x00, 0x00, 0x00, 0x00, 0x00, 0x00,
  0x00, 0x00, 0x00, 0x00, 0x00, 0x00, 0x00, 0x00, 0x00, 0x00, 0x00, 0x00,
  0x00, 0x00, 0x00, 0x00, 0x00, 0x00, 0x00, 0x00, 0x00, 0x00, 0x00, 0x00,
  0x00, 0x00, 0x00, 0x00, 0x00, 0x00, 0x00, 0x00, 0x00, 0x00, 0x00, 0x00,
  0x00, 0x00, 0x00, 0x00, 0x00, 0x00, 0x00, 0x00, 0x00, 0x00, 0x00, 0x00,
  0x00, 0x00, 0x00, 0x00, 0x00, 0x00, 0x00, 0x00, 0x00, 0x00, 0x00, 0x00,
  0x00, 0x00, 0x00, 0x00, 0x00, 0x00, 0x00, 0x00, 0x00, 0x00, 0x00, 0x00,
  0x00, 0x00, 0x00, 0x00, 0x00, 0x00, 0x00, 0x00, 0x00, 0x00, 0x00, 0x00,
  0x00, 0x00, 0x00, 0x00, 0x00, 0x00, 0x00, 0x00, 0x00, 0x00, 0x00, 0x00,
  0x00, 0x00, 0x00, 0x00, 0x00, 0x00, 0x00, 0x00, 0x00, 0x00, 0x00, 0x00,
  0x00, 0x00, 0x00, 0x00, 0x00, 0x00, 0x00, 0x00, 0x00, 0x00, 0x00, 0x00,
  0x00, 0x00, 0x00, 0x00, 0x00, 0x00, 0x00, 0x00, 0x00, 0x00, 0x00, 0x00,
  0x00, 0x00, 0x00, 0x00, 0x00, 0x00, 0x00, 0x00, 0x00, 0x00, 0x00, 0x00,
  0x00, 0x00, 0x00, 0x00, 0x00, 0x00, 0x00, 0x00, 0x00, 0x00, 0x00, 0x00,
  0x00, 0x00, 0x00, 0x00, 0x00, 0x00, 0x00, 0x00, 0x20, 0x00, 0x00, 0x00,
  0xd2, 0xef, 0xc5, 0x3a, 0x90, 0xb5, 0xc2, 0x3a, 0x0d, 0xb7, 0xbb, 0x3a,
  0xa3, 0xc8, 0xbb, 0x3a, 0x36, 0x04, 0x85, 0x3a, 0x25, 0x59, 0xc2, 0x3a,
  0x00, 0x5e, 0x6c, 0x3a, 0x5f, 0xcc, 0xa8, 0x3a, 0xcc, 0x8d, 0xc5, 0x3a,
  0x6c, 0x93, 0xb7, 0x3a, 0xd3, 0x3e, 0x62, 0x3a, 0xbc, 0x2f, 0xa8, 0x3a,
  0xbc, 0x97, 0xad, 0x3a, 0x9d, 0x87, 0x42, 0x3a, 0x25, 0xd7, 0xc2, 0x3a,
  0x9b, 0x59, 0xad, 0x3a, 0x47, 0xd5, 0xb0, 0x3a, 0x23, 0xdd, 0x5f, 0x3a,
  0xd9, 0xf8, 0xb8, 0x3a, 0x81, 0x88, 0xe9, 0x3a, 0x29, 0xeb, 0xcb, 0x3a,
  0x3c, 0xd1, 0x75, 0x3a, 0x4b, 0x0e, 0xa0, 0x3a, 0x00, 0x69, 0xb2, 0x3a,
  0x42, 0x82, 0x98, 0x3a, 0x68, 0x19, 0xb6, 0x3a, 0x94, 0x52, 0xe4, 0x3a,
  0x5d, 0x82, 0x9f, 0x3a, 0xad, 0x86, 0x64, 0x3a, 0x98, 0xe2, 0xf8, 0x3a,
  0x92, 0x5c, 0xea, 0x3a, 0x64, 0xee, 0x9f, 0x3a, 0x12, 0x00, 0x00, 0x00,
  0x74, 0x66, 0x6c, 0x2e, 0x70, 0x73, 0x65, 0x75, 0x64, 0x6f, 0x5f, 0x71,
  0x63, 0x6f, 0x6e, 0x73, 0x74, 0x35, 0x00, 0x00, 0x04, 0x00, 0x00, 0x00,
  0x20, 0x00, 0x00, 0x00, 0x03, 0x00, 0x00, 0x00, 0x03, 0x00, 0x00, 0x00,
  0x10, 0x00, 0x00, 0x00, 0x7a, 0xf6, 0xff, 0xff, 0x00, 0x00, 0x00, 0x01,
  0x14, 0x00, 0x00, 0x00, 0xa4, 0x01, 0x00, 0x00, 0x07, 0x00, 0x00, 0x00,
  0x00, 0x00, 0x00, 0x02, 0xb0, 0x01, 0x00, 0x00, 0xf4, 0xf5, 0xff, 0xff,
  0x08, 0x00, 0x00, 0x00, 0x08, 0x01, 0x00, 0x00, 0x20, 0x00, 0x00, 0x00,
  0x00, 0x00, 0x00, 0x00, 0x00, 0x00, 0x00, 0x00, 0x00, 0x00, 0x00, 0x00,
  0x00, 0x00, 0x00, 0x00, 0x00, 0x00, 0x00, 0x00, 0x00, 0x00, 0x00, 0x00,
  0x00, 0x00, 0x00, 0x00, 0x00, 0x00, 0x00, 0x00, 0x00, 0x00, 0x00, 0x00,
  0x00, 0x00, 0x00, 0x00, 0x00, 0x00, 0x00, 0x00, 0x00, 0x00, 0x00, 0x00,
  0x00, 0x00, 0x00, 0x00, 0x00, 0x00, 0x00, 0x00, 0x00, 0x00, 0x00, 0x00,
  0x00, 0x00, 0x00, 0x00, 0x00, 0x00, 0x00, 0x00, 0x00, 0x00, 0x00, 0x00,
  0x00, 0x00, 0x00, 0x00, 0x00, 0x00, 0x00, 0x00, 0x00, 0x00, 0x00, 0x00,
  0x00, 0x00, 0x00, 0x00, 0x00, 0x00, 0x00, 0x00, 0x00, 0x00, 0x00, 0x00,
  0x00, 0x00, 0x00, 0x00, 0x00, 0x00, 0x00, 0x00, 0x00, 0x00, 0x00, 0x00,
  0x00, 0x00, 0x00, 0x00, 0x00, 0x00, 0x00, 0x00, 0x00, 0x00, 0x00, 0x00,
  0x00, 0x00, 0x00, 0x00, 0x00, 0x00, 0x00, 0x00, 0x00, 0x00, 0x00, 0x00,
  0x00, 0x00, 0x00, 0x00, 0x00, 0x00, 0x00, 0x00, 0x00, 0x00, 0x00, 0x00,
  0x00, 0x00, 0x00, 0x00, 0x00, 0x00, 0x00, 0x00, 0x00, 0x00, 0x00, 0x00,
  0x00, 0x00, 0x00, 0x00, 0x00, 0x00, 0x00, 0x00, 0x00, 0x00, 0x00, 0x00,
  0x00, 0x00, 0x00, 0x00, 0x00, 0x00, 0x00, 0x00, 0x00, 0x00, 0x00, 0x00,
  0x00, 0x00, 0x00, 0x00, 0x00, 0x00, 0x00, 0x00, 0x00, 0x00, 0x00, 0x00,
  0x00, 0x00, 0x00, 0x00, 0x00, 0x00, 0x00, 0x00, 0x00, 0x00, 0x00, 0x00,
  0x00, 0x00, 0x00, 0x00, 0x00, 0x00, 0x00, 0x00, 0x00, 0x00, 0x00, 0x00,
  0x00, 0x00, 0x00, 0x00, 0x00, 0x00, 0x00, 0x00, 0x00, 0x00, 0x00, 0x00,
  0x00, 0x00, 0x00, 0x00, 0x00, 0x00, 0x00, 0x00, 0x00, 0x00, 0x00, 0x00,
  0x00, 0x00, 0x00, 0x00, 0x00, 0x00, 0x00, 0x00, 0x00, 0x00, 0x00, 0x00,
  0x00, 0x00, 0x00, 0x00, 0x20, 0x00, 0x00, 0x00, 0x41, 0x41, 0x62, 0x38,
  0xca, 0x90, 0x5e, 0x38, 0x1d, 0x92, 0x56, 0x38, 0x37, 0xa6, 0x56, 0x38,
  0xf0, 0x0b, 0x18, 0x38, 0x26, 0x27, 0x5e, 0x38, 0x79, 0x17, 0x07, 0x38,
  0x9c, 0xf2, 0x40, 0x38, 0x35, 0xd1, 0x61, 0x38, 0xe3, 0xd6, 0x51, 0x38,
  0x88, 0x4e, 0x01, 0x38, 0x90, 0x3f, 0x40, 0x38, 0x91, 0x6d, 0x46, 0x38,
  0x44, 0x5c, 0xde, 0x37, 0x2d, 0xb7, 0x5e, 0x38, 0x8d, 0x26, 0x46, 0x38,
  0xca, 0x21, 0x4a, 0x38, 0x26, 0xe4, 0xff, 0x37, 0x73, 0x6f, 0x53, 0x38,
  0xd4, 0x78, 0x85, 0x38, 0xae, 0x17, 0x69, 0x38, 0x26, 0x7e, 0x0c, 0x38,
  0x56, 0xf4, 0x36, 0x38, 0x46, 0xef, 0x4b, 0x38, 0xe5, 0x53, 0x2e, 0x38,
  0xcb, 0x26, 0x50, 0x38, 0x72, 0x7e, 0x82, 0x38, 0x64, 0x54, 0x36, 0x38,
  0x39, 0x9c, 0x02, 0x38, 0x01, 0x3f, 0x8e, 0x38, 0x08, 0xf2, 0x85, 0x38,
  0xdf, 0xcf, 0x36, 0x38, 0x12, 0x00, 0x00, 0x00, 0x74, 0x66, 0x6c, 0x2e,
  0x70, 0x73, 0x65, 0x75, 0x64, 0x6f, 0x5f, 0x71, 0x63, 0x6f, 0x6e, 0x73,
  0x74, 0x34, 0x00, 0x00, 0x01, 0x00, 0x00, 0x00, 0x20, 0x00, 0x00, 0x00,
  0x4a, 0xf8, 0xff, 0xff, 0x00, 0x00, 0x00, 0x01, 0x14, 0x00, 0x00, 0x00,
  0x28, 0x03, 0x00, 0x00, 0x06, 0x00, 0x00, 0x00, 0x00, 0x00, 0x00, 0x09,
  0x34, 0x03, 0x00, 0x00, 0xc4, 0xf7, 0xff, 0xff, 0x08, 0x00, 0x00, 0x00,
  0x0c, 0x02, 0x00, 0x00, 0x40, 0x00, 0x00, 0x00, 0x00, 0x00, 0x00, 0x00,
  0x00, 0x00, 0x00, 0x00, 0x00, 0x00, 0x00, 0x00, 0x00, 0x00, 0x00, 0x00,
  0x00, 0x00, 0x00, 0x00, 0x00, 0x00, 0x00, 0x00, 0x00, 0x00, 0x00, 0x00,
  0x00, 0x00, 0x00, 0x00, 0x00, 0x00, 0x00, 0x00, 0x00, 0x00, 0x00, 0x00,
  0x00, 0x00, 0x00, 0x00, 0x00, 0x00, 0x00, 0x00, 0x00, 0x00, 0x00, 0x00,
  0x00, 0x00, 0x00, 0x00, 0x00, 0x00, 0x00, 0x00, 0x00, 0x00, 0x00, 0x00,
  0x00, 0x00, 0x00, 0x00, 0x00, 0x00, 0x00, 0x00, 0x00, 0x00, 0x00, 0x00,
  0x00, 0x00, 0x00, 0x00, 0x00, 0x00, 0x00, 0x00, 0x00, 0x00, 0x00, 0x00,
  0x00, 0x00, 0x00, 0x00, 0x00, 0x00, 0x00, 0x00, 0x00, 0x00, 0x00, 0x00,
  0x00, 0x00, 0x00, 0x00, 0x00, 0x00, 0x00, 0x00, 0x00, 0x00, 0x00, 0x00,
  0x00, 0x00, 0x00, 0x00, 0x00, 0x00, 0x00, 0x00, 0x00, 0x00, 0x00, 0x00,
  0x00, 0x00, 0x00, 0x00, 0x00, 0x00, 0x00, 0x00, 0x00, 0x00, 0x00, 0x00,
  0x00, 0x00, 0x00, 0x00, 0x00, 0x00, 0x00, 0x00, 0x00, 0x00, 0x00, 0x00,
  0x00, 0x00, 0x00, 0x00, 0x00, 0x00, 0x00, 0x00, 0x00, 0x00, 0x00, 0x00,
  0x00, 0x00, 0x00, 0x00, 0x00, 0x00, 0x00, 0x00, 0x00, 0x00, 0x00, 0x00,
  0x00, 0x00, 0x00, 0x00, 0x00, 0x00, 0x00, 0x00, 0x00, 0x00, 0x00, 0x00,
  0x00, 0x00, 0x00, 0x00, 0x00, 0x00, 0x00, 0x00, 0x00, 0x00, 0x00, 0x00,
  0x00, 0x00, 0x00, 0x00, 0x00, 0x00, 0x00, 0x00, 0x00, 0x00, 0x00, 0x00,
  0x00, 0x00, 0x00, 0x00, 0x00, 0x00, 0x00, 0x00, 0x00, 0x00, 0x00, 0x00,
  0x00, 0x00, 0x00, 0x00, 0x00, 0x00, 0x00, 0x00, 0x00, 0x00, 0x00, 0x00,
  0x00, 0x00, 0x00, 0x00, 0x00, 0x00, 0x00, 0x00, 0x00, 0x00, 0x00, 0x00,
  0x00, 0x00, 0x00, 0x00, 0x00, 0x00, 0x00, 0x00, 0x00, 0x00, 0x00, 0x00,
  0x00, 0x00, 0x00, 0x00, 0x00, 0x00, 0x00, 0x00, 0x00, 0x00, 0x00, 0x00,
  0x00, 0x00, 0x00, 0x00, 0x00, 0x00, 0x00, 0x00, 0x00, 0x00, 0x00, 0x00,
  0x00, 0x00, 0x00, 0x00, 0x00, 0x00, 0x00, 0x00, 0x00, 0x00, 0x00, 0x00,
  0x00, 0x00, 0x00, 0x00, 0x00, 0x00, 0x00, 0x00, 0x00, 0x00, 0x00, 0x00,
  0x00, 0x00, 0x00, 0x00, 0x00, 0x00, 0x00, 0x00, 0x00, 0x00, 0x00, 0x00,
  0x00, 0x00, 0x00, 0x00, 0x00, 0x00, 0x00, 0x00, 0x00, 0x00, 0x00, 0x00,
  0x00, 0x00, 0x00, 0x00, 0x00, 0x00, 0x00, 0x00, 0x00, 0x00, 0x00, 0x00,
  0x00, 0x00, 0x00, 0x00, 0x00, 0x00, 0x00, 0x00, 0x00, 0x00, 0x00, 0x00,
  0x00, 0x00, 0x00, 0x00, 0x00, 0x00, 0x00, 0x00, 0x00, 0x00, 0x00, 0x00,
  0x00, 0x00, 0x00, 0x00, 0x00, 0x00, 0x00, 0x00, 0x00, 0x00, 0x00, 0x00,
  0x00, 0x00, 0x00, 0x00, 0x00, 0x00, 0x00, 0x00, 0x00, 0x00, 0x00, 0x00,
  0x00, 0x00, 0x00, 0x00, 0x00, 0x00, 0x00, 0x00, 0x00, 0x00, 0x00, 0x00,
  0x00, 0x00, 0x00, 0x00, 0x00, 0x00, 0x00, 0x00, 0x00, 0x00, 0x00, 0x00,
  0x00, 0x00, 0x00, 0x00, 0x00, 0x00, 0x00, 0x00, 0x00, 0x00, 0x00, 0x00,
  0x00, 0x00, 0x00, 0x00, 0x00, 0x00, 0x00, 0x00, 0x00, 0x00, 0x00, 0x00,
  0x00, 0x00, 0x00, 0x00, 0x00, 0x00, 0x00, 0x00, 0x00, 0x00, 0x00, 0x00,
  0x00, 0x00, 0x00, 0x00, 0x00, 0x00, 0x00, 0x00, 0x00, 0x00, 0x00, 0x00,
  0x00, 0x00, 0x00, 0x00, 0x00, 0x00, 0x00, 0x00, 0x00, 0x00, 0x00, 0x00,
  0x00, 0x00, 0x00, 0x00, 0x00, 0x00, 0x00, 0x00, 0x00, 0x00, 0x00, 0x00,
  0x00, 0x00, 0x00, 0x00, 0x00, 0x00, 0x00, 0x00, 0x00, 0x00, 0x00, 0x00,
  0x00, 0x00, 0x00, 0x00, 0x00, 0x00, 0x00, 0x00, 0x00, 0x00, 0x00, 0x00,
  0x00, 0x00, 0x00, 0x00, 0x00, 0x00, 0x00, 0x00, 0x40, 0x00, 0x00, 0x00,
  0xcd, 0xe6, 0x4c, 0x3a, 0xac, 0xee, 0x0c, 0x3b, 0x97, 0x1d, 0x55, 0x3b,
  0xf5, 0xc6, 0x0b, 0x3b, 0x28, 0x3c, 0x14, 0x3b, 0xac, 0x1e, 0x51, 0x39,
  0x2f, 0x07, 0xfa, 0x3a, 0x74, 0x83, 0x54, 0x3b, 0xd6, 0x33, 0xe9, 0x39,
  0x49, 0xd8, 0x67, 0x3a, 0x4e, 0x66, 0x33, 0x3b, 0x61, 0x5b, 0x2b, 0x3b,
  0x7f, 0xd5, 0x31, 0x3b, 0xf2, 0x63, 0x27, 0x3b, 0x2c, 0x2d, 0x42, 0x3b,
  0x6f, 0xde, 0x3c, 0x3b, 0xff, 0xc1, 0x02, 0x3b, 0xa1, 0xc8, 0x29, 0x3b,
  0x50, 0xe5, 0x1b, 0x3b, 0x4a, 0x46, 0x87, 0x31, 0x57, 0xb0, 0x2f, 0x3b,
  0x47, 0xa3, 0x28, 0x3b, 0x4a, 0x46, 0x87, 0x31, 0xa9, 0x0e, 0xeb, 0x3a,
  0xc5, 0x1a, 0x1c, 0x3b, 0x56, 0xa7, 0x2f, 0x3b, 0x1e, 0xe0, 0x1d, 0x3b,
  0xd9, 0xb8, 0x3f, 0x3b, 0xb9, 0x88, 0x1b, 0x3b, 0x6f, 0x92, 0xdf, 0x3a,
  0xf7, 0xf2, 0x29, 0x3b, 0x3b, 0x10, 0x21, 0x3b, 0x4d, 0x39, 0x2c, 0x3b,
  0xee, 0xed, 0xd0, 0x3a, 0x9e, 0xd9, 0x3c, 0x3b, 0xda, 0x36, 0xa2, 0x3a,
  0xf3, 0xc3, 0x26, 0x3b, 0xff, 0x40, 0x1f, 0x3b, 0x6d, 0x15, 0x2b, 0x3b,
  0x50, 0x72, 0xd4, 0x3a, 0x4a, 0x46, 0x87, 0x31, 0x60, 0xb6, 0x18, 0x3b,
  0x84, 0xaf, 0x2b, 0x3b, 0x70, 0x8b, 0x27, 0x3b, 0x84, 0x80, 0x18, 0x3b,
  0xcf, 0x28, 0x89, 0x3a, 0x7a, 0x42, 0x26, 0x3b, 0xe6, 0xbe, 0x16, 0x3b,
  0xfa, 0x04, 0xfc, 0x3a, 0x4a, 0x46, 0x87, 0x31, 0xc2, 0x83, 0x2e, 0x3b,
  0x04, 0x5d, 0x2f, 0x3b, 0xe4, 0x12, 0xe4, 0x3a, 0xf2, 0x92, 0x2d, 0x3b,
  0x9d, 0xf3, 0x0c, 0x3b, 0x4a, 0x46, 0x87, 0x31, 0x0b, 0xaf, 0x1e, 0x3b,
  0x37, 0x39, 0x28, 0x3b, 0xdc, 0x4a, 0x1d, 0x3b, 0xf7, 0x45, 0x30, 0x3b,
  0xa0, 0x2e, 0x28, 0x3b, 0x41, 0xa3, 0x0c, 0x3b, 0x09, 0x95, 0x4c, 0x3b,
  0x1f, 0x8e, 0x25, 0x3b, 0x12, 0x00, 0x00, 0x00, 0x74, 0x66, 0x6c, 0x2e,
  0x70, 0x73, 0x65, 0x75, 0x64, 0x6f, 0x5f, 0x71, 0x63, 0x6f, 0x6e, 0x73,
  0x74, 0x33, 0x00, 0x00, 0x02, 0x00, 0x00, 0x00, 0x40, 0x00, 0x00, 0x00,
  0x20, 0x00, 0x00, 0x00, 0xa2, 0xfb, 0xff, 0xff, 0x00, 0x00, 0x00, 0x01,
  0x14, 0x00, 0x00, 0x00, 0x24, 0x03, 0x00, 0x00, 0x05, 0x00, 0x00, 0x00,
  0x00, 0x00, 0x00, 0x02, 0x30, 0x03, 0x00, 0x00, 0x1c, 0xfb, 0xff, 0xff,
  0x08, 0x00, 0x00, 0x00, 0x08, 0x02, 0x00, 0x00, 0x40, 0x00, 0x00, 0x00,
  0x00, 0x00, 0x00, 0x00, 0x00, 0x00, 0x00, 0x00, 0x00, 0x00, 0x00, 0x00,
  0x00, 0x00, 0x00, 0x00, 0x00, 0x00, 0x00, 0x00, 0x00, 0x00, 0x00, 0x00,
  0x00, 0x00, 0x00, 0x00, 0x00, 0x00, 0x00, 0x00, 0x00, 0x00, 0x00, 0x00,
  0x00, 0x00, 0x00, 0x00, 0x00, 0x00, 0x00, 0x00, 0x00, 0x00, 0x00, 0x00,
  0x00, 0x00, 0x00, 0x00, 0x00, 0x00, 0x00, 0x00, 0x00, 0x00, 0x00, 0x00,
  0x00, 0x00, 0x00, 0x00, 0x00, 0x00, 0x00, 0x00, 0x00, 0x00, 0x00, 0x00,
  0x00, 0x00, 0x00, 0x00, 0x00, 0x00, 0x00, 0x00, 0x00, 0x00, 0x00, 0x00,
  0x00, 0x00, 0x00, 0x00, 0x00, 0x00, 0x00, 0x00, 0x00, 0x00, 0x00, 0x00,
  0x00, 0x00, 0x00, 0x00, 0x00, 0x00, 0x00, 0x00, 0x00, 0x00, 0x00, 0x00,
  0x00, 0x00, 0x00, 0x00, 0x00, 0x00, 0x00, 0x00, 0x00, 0x00, 0x00, 0x00,
  0x00, 0x00, 0x00, 0x00, 0x00, 0x00, 0x00, 0x00, 0x00, 0x00, 0x00, 0x00,
  0x00, 0x00, 0x00, 0x00, 0x00, 0x00, 0x00, 0x00, 0x00, 0x00, 0x00, 0x00,
  0x00, 0x00, 0x00, 0x00, 0x00, 0x00, 0x00, 0x00, 0x00, 0x00, 0x00, 0x00,
  0x00, 0x00, 0x00, 0x00, 0x00, 0x00, 0x00, 0x00, 0x00, 0x00, 0x00, 0x00,
  0x00, 0x00, 0x00, 0x00, 0x00, 0x00, 0x00, 0x00, 0x00, 0x00, 0x00, 0x00,
  0x00, 0x00, 0x00, 0x00, 0x00, 0x00, 0x00, 0x00, 0x00, 0x00, 0x00, 0x00,
  0x00, 0x00, 0x00, 0x00, 0x00, 0x00, 0x00, 0x00, 0x00, 0x00, 0x00, 0x00,
  0x00, 0x00, 0x00, 0x00, 0x00, 0x00, 0x00, 0x00, 0x00, 0x00, 0x00, 0x00,
  0x00, 0x00, 0x00, 0x00, 0x00, 0x00, 0x00, 0x00, 0x00, 0x00, 0x00, 0x00,
  0x00, 0x00, 0x00, 0x00, 0x00, 0x00, 0x00, 0x00, 0x00, 0x00, 0x00, 0x00,
  0x00, 0x00, 0x00, 0x00, 0x00, 0x00, 0x00, 0x00, 0x00, 0x00, 0x00, 0x00,
  0x00, 0x00, 0x00, 0x00, 0x00, 0x00, 0x00, 0x00, 0x00, 0x00, 0x00, 0x00,
  0x00, 0x00, 0x00, 0x00, 0x00, 0x00, 0x00, 0x00, 0x00, 0x00, 0x00, 0x00,
  0x00, 0x00, 0x00, 0x00, 0x00, 0x00, 0x00, 0x00, 0x00, 0x00, 0x00, 0x00,
  0x00, 0x00, 0x00, 0x00, 0x00, 0x00, 0x00, 0x00, 0x00, 0x00, 0x00, 0x00,
  0x00, 0x00, 0x00, 0x00, 0x00, 0x00, 0x00, 0x00, 0x00, 0x00, 0x00, 0x00,
  0x00, 0x00, 0x00, 0x00, 0x00, 0x00, 0x00, 0x00, 0x00, 0x00, 0x00, 0x00,
  0x00, 0x00, 0x00, 0x00, 0x00, 0x00, 0x00, 0x00, 0x00, 0x00, 0x00, 0x00,
  0x00, 0x00, 0x00, 0x00, 0x00, 0x00, 0x00, 0x00, 0x00, 0x00, 0x00, 0x00,
  0x00, 0x00, 0x00, 0x00, 0x00, 0x00, 0x00, 0x00, 0x00, 0x00, 0x00, 0x00,
  0x00, 0x00, 0x00, 0x00, 0x00, 0x00, 0x00, 0x00, 0x00, 0x00, 0x00, 0x00,
  0x00, 0x00, 0x00, 0x00, 0x00, 0x00, 0x00, 0x00, 0x00, 0x00, 0x00, 0x00,
  0x00, 0x00, 0x00, 0x00, 0x00, 0x00, 0x00, 0x00, 0x00, 0x00, 0x00, 0x00,
  0x00, 0x00, 0x00, 0x00, 0x00, 0x00, 0x00, 0x00, 0x00, 0x00, 0x00, 0x00,
  0x00, 0x00, 0x00, 0x00, 0x00, 0x00, 0x00, 0x00, 0x00, 0x00, 0x00, 0x00,
  0x00, 0x00, 0x00, 0x00, 0x00, 0x00, 0x00, 0x00, 0x00, 0x00, 0x00, 0x00,
  0x00, 0x00, 0x00, 0x00, 0x00, 0x00, 0x00, 0x00, 0x00, 0x00, 0x00, 0x00,
  0x00, 0x00, 0x00, 0x00, 0x00, 0x00, 0x00, 0x00, 0x00, 0x00, 0x00, 0x00,
  0x00, 0x00, 0x00, 0x00, 0x00, 0x00, 0x00, 0x00, 0x00, 0x00, 0x00, 0x00,
  0x00, 0x00, 0x00, 0x00, 0x00, 0x00, 0x00, 0x00, 0x00, 0x00, 0x00, 0x00,
  0x00, 0x00, 0x00, 0x00, 0x00, 0x00, 0x00, 0x00, 0x00, 0x00, 0x00, 0x00,
  0x00, 0x00, 0x00, 0x00, 0x00, 0x00, 0x00, 0x00, 0x00, 0x00, 0x00, 0x00,
  0x00, 0x00, 0x00, 0x00, 0x00, 0x00, 0x00, 0x00, 0x40, 0x00, 0x00, 0x00,
  0x60, 0xc7, 0x19, 0x37, 0x27, 0x8a, 0xd3, 0x37, 0x85, 0xf1, 0x1f, 0x38,
  0x49, 0xce, 0xd1, 0x37, 0x41, 0x80, 0xde, 0x37, 0xd2, 0xf1, 0x1c, 0x36,
  0x73, 0xa5, 0xbb, 0x37, 0xd7, 0x7d, 0x1f, 0x38, 0xc8, 0x04, 0xaf, 0x36,
  0xf2, 0xff, 0x2d, 0x37, 0xbc, 0xa3, 0x06, 0x38, 0x82, 0x9a, 0x00, 0x38,
  0xed, 0x76, 0x05, 0x38, 0xd9, 0x40, 0xfb, 0x37, 0xc7, 0xba, 0x11, 0x38,
  0x0b, 0xbf, 0x0d, 0x38, 0x88, 0x44, 0xc4, 0x37, 0x7d, 0xd8, 0xfe, 0x37,
  0xf4, 0xff, 0xe9, 0x37, 0x21, 0x0c, 0x4b, 0x2e, 0xc9, 0xda, 0x03, 0x38,
  0x2b, 0x20, 0xfd, 0x37, 0x21, 0x0c, 0x4b, 0x2e, 0x23, 0x69, 0xb0, 0x37,
  0x31, 0x50, 0xea, 0x37, 0x07, 0xd4, 0x03, 0x38, 0xab, 0xf8, 0xec, 0x37,
  0x39, 0xe3, 0x0f, 0x38, 0xf9, 0x74, 0xe9, 0x37, 0x7f, 0xca, 0xa7, 0x37,
  0x09, 0x18, 0xff, 0x37, 0xa7, 0xc1, 0xf1, 0x37, 0x10, 0x41, 0x01, 0x38,
  0x3d, 0xcd, 0x9c, 0x37, 0x6e, 0xbb, 0x0d, 0x38, 0xe1, 0x7b, 0x73, 0x37,
  0xb2, 0x50, 0xfa, 0x37, 0x57, 0x0a, 0xef, 0x37, 0x02, 0x66, 0x00, 0x38,
  0xfa, 0x70, 0x9f, 0x37, 0x21, 0x0c, 0x4b, 0x2e, 0xbb, 0x38, 0xe5, 0x37,
  0xa7, 0xd9, 0x00, 0x38, 0x20, 0x7c, 0xfb, 0x37, 0xe3, 0xe7, 0xe4, 0x37,
  0x64, 0xe0, 0x4d, 0x37, 0x5b, 0x8e, 0xf9, 0x37, 0x02, 0x45, 0xe2, 0x37,
  0x0d, 0x24, 0xbd, 0x37, 0x21, 0x0c, 0x4b, 0x2e, 0x32, 0xf9, 0x02, 0x38,
  0x40, 0x9c, 0x03, 0x38, 0x6a, 0x2b, 0xab, 0x37, 0x78, 0x44, 0x02, 0x38,
  0x92, 0x91, 0xd3, 0x37, 0x21, 0x0c, 0x4b, 0x2e, 0x43, 0x2f, 0xee, 0x37,
  0xf7, 0x80, 0xfc, 0x37, 0xa1, 0x18, 0xec, 0x37, 0x14, 0x4b, 0x04, 0x38,
  0x12, 0x71, 0xfc, 0x37, 0xf3, 0x18, 0xd3, 0x37, 0x03, 0x8a, 0x19, 0x38,
  0xa4, 0x7f, 0xf8, 0x37, 0x12, 0x00, 0x00, 0x00, 0x74, 0x66, 0x6c, 0x2e,
  0x70, 0x73, 0x65, 0x75, 0x64, 0x6f, 0x5f, 0x71, 0x63, 0x6f, 0x6e, 0x73,
  0x74, 0x32, 0x00, 0x00, 0x01, 0x00, 0x00, 0x00, 0x40, 0x00, 0x00, 0x00,
  0xf2, 0xfe, 0xff, 0xff, 0x00, 0x00, 0x00, 0x01, 0x14, 0x00, 0x00, 0x00,
  0x58, 0x00, 0x00, 0x00, 0x04, 0x00, 0x00, 0x00, 0x00, 0x00, 0x00, 0x09,
  0x64, 0x00, 0x00, 0x00, 0x6c, 0xfe, 0xff, 0xff, 0x08, 0x00, 0x00, 0x00,
  0x2c, 0x00, 0x00, 0x00, 0x04, 0x00, 0x00, 0x00, 0x00, 0x00, 0x00, 0x00,
  0x00, 0x00, 0x00, 0x00, 0x00, 0x00, 0x00, 0x00, 0x00, 0x00, 0x00, 0x00,
  0x00, 0x00, 0x00, 0x00, 0x00, 0x00, 0x00, 0x00, 0x00, 0x00, 0x00, 0x00,
  0x00, 0x00, 0x00, 0x00, 0x00, 0x00, 0x00, 0x00, 0x04, 0x00, 0x00, 0x00,
  0x01, 0x50, 0x91, 0x3b, 0xb2, 0x7c, 0xa6, 0x3b, 0x53, 0x22, 0x9f, 0x3b,
  0xbf, 0xad, 0xa3, 0x3b, 0x12, 0x00, 0x00, 0x00, 0x74, 0x66, 0x6c, 0x2e,
  0x70, 0x73, 0x65, 0x75, 0x64, 0x6f, 0x5f, 0x71, 0x63, 0x6f, 0x6e, 0x73,
  0x74, 0x31, 0x00, 0x00, 0x02, 0x00, 0x00, 0x00, 0x04, 0x00, 0x00, 0x00,
  0x40, 0x00, 0x00, 0x00, 0x7a, 0xff, 0xff, 0xff, 0x00, 0x00, 0x00, 0x01,
  0x14, 0x00, 0x00, 0x00, 0x58, 0x00, 0x00, 0x00, 0x03, 0x00, 0x00, 0x00,
  0x00, 0x00, 0x00, 0x02, 0x64, 0x00, 0x00, 0x00, 0xf4, 0xfe, 0xff, 0xff,
  0x08, 0x00, 0x00, 0x00, 0x2c, 0x00, 0x00, 0x00, 0x04, 0x00, 0x00, 0x00,
  0x00, 0x00, 0x00, 0x00, 0x00, 0x00, 0x00, 0x00, 0x00, 0x00, 0x00, 0x00,
  0x00, 0x00, 0x00, 0x00, 0x00, 0x00, 0x00, 0x00, 0x00, 0x00, 0x00, 0x00,
  0x00, 0x00, 0x00, 0x00, 0x00, 0x00, 0x00, 0x00, 0x00, 0x00, 0x00, 0x00,
  0x04, 0x00, 0x00, 0x00, 0x56, 0x83, 0x7e, 0x38, 0xce, 0xcc, 0x91, 0x38,
  0x55, 0x5c, 0x8b, 0x38, 0x31, 0x57, 0x8f, 0x38, 0x11, 0x00, 0x00, 0x00,
  0x74, 0x66, 0x6c, 0x2e, 0x70, 0x73, 0x65, 0x75, 0x64, 0x6f, 0x5f, 0x71,
  0x63, 0x6f, 0x6e, 0x73, 0x74, 0x00, 0x00, 0x00, 0x01, 0x00, 0x00, 0x00,
  0x04, 0x00, 0x00, 0x00, 0x00, 0x00, 0x16, 0x00, 0x1c, 0x00, 0x18, 0x00,
  0x17, 0x00, 0x10, 0x00, 0x0c, 0x00, 0x08, 0x00, 0x00, 0x00, 0x00, 0x00,
  0x00, 0x00, 0x07, 0x00, 0x16, 0x00, 0x00, 0x00, 0x00, 0x00, 0x00, 0x01,
  0x18, 0x00, 0x00, 0x00, 0x18, 0x00, 0x00, 0x00, 0x02, 0x00, 0x00, 0x00,
  0x00, 0x00, 0x00, 0x02, 0x20, 0x00, 0x00, 0x00, 0x04, 0x00, 0x04, 0x00,
  0x04, 0x00, 0x00, 0x00, 0x0e, 0x00, 0x00, 0x00, 0x61, 0x72, 0x69, 0x74,
  0x68, 0x2e, 0x63, 0x6f, 0x6e, 0x73, 0x74, 0x61, 0x6e, 0x74, 0x00, 0x00,
  0x01, 0x00, 0x00, 0x00, 0x02, 0x00, 0x00, 0x00, 0x00, 0x00, 0x16, 0x00,
  0x20, 0x00, 0x1c, 0x00, 0x1b, 0x00, 0x14, 0x00, 0x10, 0x00, 0x0c, 0x00,
  0x00, 0x00, 0x00, 0x00, 0x08, 0x00, 0x07, 0x00, 0x16, 0x00, 0x00, 0x00,
  0x00, 0x00, 0x00, 0x01, 0x18, 0x00, 0x00, 0x00, 0x34, 0x00, 0x00, 0x00,
  0x54, 0x00, 0x00, 0x00, 0x01, 0x00, 0x00, 0x00, 0x00, 0x00, 0x00, 0x09,
  0x6c, 0x00, 0x00, 0x00, 0x04, 0x00, 0x00, 0x00, 0xff, 0xff, 0xff, 0xff,
  0x0d, 0x00, 0x00, 0x00, 0x7c, 0x00, 0x00, 0x00, 0x01, 0x00, 0x00, 0x00,
  0x0c, 0x00, 0x0c, 0x00, 0x00, 0x00, 0x00, 0x00, 0x08, 0x00, 0x04, 0x00,
  0x0c, 0x00, 0x00, 0x00, 0x08, 0x00, 0x00, 0x00, 0x14, 0x00, 0x00, 0x00,
  0x01, 0x00, 0x00, 0x00, 0xfb, 0xff, 0xff, 0xff, 0xff, 0xff, 0xff, 0xff,
  0x00, 0x00, 0x00, 0x00, 0x01, 0x00, 0x00, 0x00, 0x2f, 0xf3, 0x4e, 0x3d,
  0x1e, 0x00, 0x00, 0x00, 0x73, 0x65, 0x72, 0x76, 0x69, 0x6e, 0x67, 0x5f,
  0x64, 0x65, 0x66, 0x61, 0x75, 0x6c, 0x74, 0x5f, 0x6b, 0x65, 0x72, 0x61,
  0x73, 0x5f, 0x74, 0x65, 0x6e, 0x73, 0x6f, 0x72, 0x3a, 0x30, 0x00, 0x00,
  0x04, 0x00, 0x00, 0x00, 0x01, 0x00, 0x00, 0x00, 0x0d, 0x00, 0x00, 0x00,
  0x7c, 0x00, 0x00, 0x00, 0x01, 0x00, 0x00, 0x00, 0x05, 0x00, 0x00, 0x00,
  0x60, 0x00, 0x00, 0x00, 0x40, 0x00, 0x00, 0x00, 0x2c, 0x00, 0x00, 0x00,
  0x18, 0x00, 0x00, 0x00, 0x04, 0x00, 0x00, 0x00, 0xc0, 0xff, 0xff, 0xff,
  0x19, 0x00, 0x00, 0x00, 0x02, 0x00, 0x00, 0x00, 0x00, 0x00, 0x00, 0x19,
  0xd0, 0xff, 0xff, 0xff, 0x09, 0x00, 0x00, 0x00, 0x04, 0x00, 0x00, 0x00,
  0x00, 0x00, 0x00, 0x09, 0xe0, 0xff, 0xff, 0xff, 0x28, 0x00, 0x00, 0x00,
  0x02, 0x00, 0x00, 0x00, 0x00, 0x00, 0x00, 0x28, 0xf0, 0xff, 0xff, 0xff,
  0x11, 0x00, 0x00, 0x00, 0x02, 0x00, 0x00, 0x00, 0x00, 0x00, 0x00, 0x11,
  0x0c, 0x00, 0x10, 0x00, 0x0f, 0x00, 0x00, 0x00, 0x08, 0x00, 0x04, 0x00,
  0x0c, 0x00, 0x00, 0x00, 0x03, 0x00, 0x00, 0x00, 0x03, 0x00, 0x00, 0x00,
  0x00, 0x00, 0x00, 0x03
};
